#ifdef HAVE_CONFIG_H
# include "config.h"
#endif

#include <fcntl.h>
#include <stdio.h>
#include <sys/stat.h>
#include <sys/time.h>
#include <sys/types.h>
#include <time.h>
#include <vlc_common.h>
#include <vlc_filter.h>
#include <vlc_picture.h>
#include <vlc_plugin.h>

#define MTX_STRIDE(stride)  ((stride) / sizeof(float))
#define ROUND2(x, n)        (((x) + (1LL << ((n) - 1))) >> (n))

struct filter_sys
{
    float *input;
    float *pass_0;
    float *pass_1;
    float *pass_2;

    unsigned width;
    unsigned height;
    
    int fd;

    struct timeval *tv_delta;
    size_t num_tv_delta;
};

struct vec3f  { float   a; float   b; float   c;            };
struct vec4f  { float   a; float   b; float   c; float   d; };
struct vec4u8 { uint8_t a; uint8_t b; uint8_t c; uint8_t d; };

/* FIXME:
 *  - 1 memcpy of 1*stride + 1 memcpy of 2 * stride
 */

static int16_t const lut_weights[] =
{
    0x0035, 0xFF5C, 0x0064, 0x0073, 0xFF5E, 0x0036, 0xFEF1, 0x02A4, 0x0234,
    0x0200, 0x02BE, 0xFED6, 0x00CC, 0x0404, 0x3630, 0x3828, 0x0476, 0x0108,
    0x002B, 0xFF70, 0x00DC, 0x00B7, 0xFF33, 0x002B, 0xFE68, 0x01A2, 0x052E,
    0x0548, 0x0116, 0xFD59, 0x02D8, 0x03FD, 0x2900, 0x34A0, 0x0C62, 0x05AE,
    0x000D, 0x0049, 0x0159, 0x0147, 0xFFDD, 0x0008, 0xFFB1, 0xF31C, 0x0E32,
    0x15BC, 0xF640, 0xFE93, 0xFF6A, 0xF558, 0x1524, 0x3690, 0x2AD8, 0x064C,
    0x0017, 0xFF8E, 0x00DC, 0x00DC, 0xFF9A, 0x0018, 0xFF52, 0x01EB, 0xFAD4,
    0xFAB0, 0x01D7, 0xFF64, 0x0140, 0xFBCC, 0x4590, 0x4720, 0xFBEA, 0x0148,
    0x0012, 0xFFBC, 0x0046, 0x0046, 0xFF91, 0x0015, 0xFDCF, 0x0130, 0xFE82,
    0xFE8D, 0x0117, 0xFDB9, 0x0152, 0x03EB, 0x3A00, 0x3E30, 0x05C1, 0x01F2,
    0x0008, 0xFF78, 0x00C8, 0x00C0, 0xFF2F, 0x0007, 0xFDC6, 0xFD9B, 0x060E,
    0x065F, 0xFE13, 0xFD6A, 0x0295, 0x060F, 0x2C88, 0x3120, 0x0E58, 0x07CF,
    0x0019, 0xFF68, 0x0139, 0x0128, 0xFF8F, 0x0014, 0xFF02, 0x0112, 0xF78C,
    0xF778, 0x00BD, 0xFF2B, 0x01F8, 0xF796, 0x4D80, 0x4EC0, 0xF7D4, 0x01DE,
    0x000B, 0xFFB9, 0x00B7, 0x00E9, 0xFFC1, 0x000C, 0xFE33, 0x012E, 0xF8A2,
    0xF872, 0x003A, 0xFE51, 0x01A6, 0xFB4C, 0x4840, 0x4BD0, 0xFCB7, 0x0224,
    0x000C, 0xFFEA, 0x0063, 0x0089, 0xFF7D, 0x0011, 0xFCE9, 0xFE50, 0xFE69,
    0xFEA6, 0xFCB9, 0xFC7B, 0x00FF, 0x050D, 0x3AA8, 0x3FC8, 0x0984, 0x0412,
    0x002F, 0xFF87, 0x021A, 0x020B, 0xFFD1, 0x002B, 0xFF3C, 0x0021, 0xF40C,
    0xF410, 0xFF64, 0xFF36, 0x02B6, 0xF392, 0x53C0, 0x54F0, 0xF422, 0x02F3,
    0x0010, 0xFFB2, 0x011A, 0x011F, 0x002A, 0xFFFD, 0xFEA7, 0x00A2, 0xF6A4,
    0xF692, 0xFEBA, 0xFE3D, 0x0183, 0xF71E, 0x4DF0, 0x5130, 0xF951, 0x0354,
    0xFFF9, 0x0008, 0x00A9, 0x010A, 0xFFE0, 0xFFF9, 0xFDAD, 0xFF68, 0xFA35,
    0xFA56, 0xFD19, 0xFC29, 0x0067, 0xFDE0, 0x4440, 0x49B0, 0x01DF, 0x0578,
    0x0021, 0xFF77, 0x02C2, 0x02AC, 0xFFE4, 0x0010, 0xFFA3, 0x00EC, 0xF1D0,
    0xF12A, 0x0042, 0xFF79, 0x0303, 0xF09C, 0x56B0, 0x5880, 0xF128, 0x03BF,
    0xFFFD, 0xFF9D, 0x01B2, 0x01BE, 0x008F, 0xFFEB, 0xFF93, 0x00D1, 0xF4E4,
    0xF436, 0xFDE7, 0xFE29, 0x00FB, 0xF2E6, 0x51C0, 0x55A0, 0xF6D6, 0x04E2,
    0xFFF1, 0xFFEC, 0x00AE, 0x011A, 0x006A, 0xFFD0, 0xFF7F, 0x0122, 0xFA13,
    0xF992, 0xFBCF, 0xF984, 0xFBB6, 0xF78C, 0x4730, 0x4D30, 0x00F3, 0x0BF4,
    0xFEF4, 0xFFFD, 0x017A, 0x01D4, 0x0070, 0xFEE5, 0x0139, 0x049E, 0xF15C,
    0xF070, 0x03A1, 0x00D0, 0x006B, 0xF150, 0x54F0, 0x57E0, 0xF1F2, 0x01DF,
    0xFFC1, 0xFFA1, 0x0173, 0x0206, 0x00CE, 0xFFCB, 0xFFEB, 0x0331, 0xF43C,
    0xF21C, 0xFECC, 0xFDE1, 0x0031, 0xEFC4, 0x5190, 0x58F0, 0xF67A, 0x0584,
    0xFFF8, 0xFFBD, 0x0075, 0x0137, 0x007F, 0x002F, 0x018F, 0x0487, 0xFB60,
    0xF9C4, 0xF96E, 0xF460, 0xF3E0, 0xEE60, 0x46E0, 0x50B0, 0x0433, 0x16EC,
    0xFFFE, 0xFFA7, 0x02F4, 0x0386, 0x0050, 0x0033, 0xFF0A, 0x01CE, 0xF09A,
    0xEF18, 0xFFE1, 0xFE50, 0x03A3, 0xEDD8, 0x5790, 0x5CD0, 0xEF54, 0x0568,
    0xFFD6, 0xFF93, 0x0157, 0x0290, 0x00C5, 0x0089, 0xFF7E, 0x02E8, 0xF5EC,
    0xF1B0, 0xFC93, 0xFC9B, 0x01C6, 0xEB30, 0x5070, 0x5C90, 0xF728, 0x0718,
    0x0025, 0xFF66, 0xFFF8, 0x00B7, 0xFF20, 0x02CE, 0x02EC, 0x0908, 0xFF3C,
    0xFA4B, 0xF7C8, 0xEC0C, 0xEDD4, 0xE034, 0x4270, 0x53F0, 0x0DAC, 0x2268,
    0x0050, 0xFFC6, 0x02BD, 0x0360, 0x00C0, 0x00DB, 0xFE8D, 0x0042, 0xF2AA,
    0xF000, 0xFDAF, 0xFDA1, 0x03CE, 0xEEE8, 0x5500, 0x5D40, 0xF0AC, 0x05C5,
    0x007C, 0xFF14, 0x0113, 0x0286, 0x00FB, 0x0259, 0xFE08, 0x02D2, 0xF8B2,
    0xF118, 0xFA7B, 0xFA95, 0x0383, 0xE938, 0x4C70, 0x5F70, 0xFA1F, 0x0717,
    0x0048, 0xFE7A, 0xFF5A, 0x000C, 0xFDCA, 0x072C, 0x0354, 0x0BBA, 0x03B7,
    0xF8E3, 0xF50A, 0xE704, 0xEF4C, 0xD310, 0x3BD8, 0x5CC0, 0x1578, 0x24C0,
    0x022E, 0xFDF4, 0x05DC, 0x06D8, 0x00B5, 0x00BE, 0xFC0B, 0x053A, 0xEB3C,
    0xE80C, 0x01B8, 0xFD7C, 0x05B4, 0xEB74, 0x5930, 0x5FE0, 0xECB0, 0x070E,
    0x01E6, 0x0007, 0x03FA, 0x0565, 0x02C9, 0x03DF, 0xFC69, 0xFFA7, 0xF342,
    0xEE18, 0xF7DA, 0xFAB6, 0x053A, 0xEE48, 0x4580, 0x5E30, 0x0535, 0x01B5,
    0xFDD5, 0xFF14, 0xFDE7, 0x0129, 0x0212, 0x09C6, 0x039F, 0x08BA, 0x0F6C,
    0xF06C, 0xE458, 0xF190, 0xF754, 0xCA80, 0x1FEC, 0x6E80, 0x3618, 0x0FCC,
    0x0052, 0xFF82, 0xFFFE, 0x0038, 0xFF89, 0x0065, 0xFEED, 0x0320, 0x014A,
    0x0062, 0x02ED, 0xFE88, 0x003C, 0x029E, 0x34C0, 0x3DF0, 0x0482, 0x00C5,
    0x0054, 0x0006, 0x005F, 0xFFCA, 0xFF28, 0x0061, 0xFDD1, 0x02B0, 0x0463,
    0x044D, 0x002F, 0xFB28, 0x0097, 0x0190, 0x1CF8, 0x39A8, 0x1B34, 0x076E,
    0x000B, 0x001C, 0x00E7, 0x00F0, 0xFE47, 0xFFFD, 0xFEFD, 0x017E, 0x0264,
    0x075F, 0x01DB, 0xF945, 0xFD33, 0xFFF7, 0x110C, 0x2328, 0x2AA0, 0x1E64,
    0x0015, 0xFF85, 0x00D3, 0x00E9, 0xFF9A, 0x001D, 0xFF58, 0x01F3, 0xFAD7,
    0xFA6C, 0x01E7, 0xFF7A, 0x0137, 0xFB84, 0x4430, 0x4910, 0xFBD5, 0x013E,
    0x0015, 0xFFD4, 0x0021, 0x0044, 0xFF49, 0x0023, 0xFE27, 0x01ED, 0xFDCC,
    0xFDCF, 0x01DE, 0xFDA5, 0x0054, 0x01EE, 0x3638, 0x43D0, 0x06E7, 0x01EC,
    0x0015, 0xFFA8, 0x004C, 0x0016, 0xFE35, 0x000E, 0xFC89, 0x02F3, 0x0348,
    0x03E2, 0x0197, 0xF9E2, 0xFE15, 0x05B2, 0x2538, 0x30B8, 0x1798, 0x0E36,
    0x001C, 0xFF41, 0x014E, 0x011F, 0xFFB8, 0x0011, 0xFEFD, 0x016F, 0xF78E,
    0xF750, 0x0062, 0xFF64, 0x01EF, 0xF724, 0x4C70, 0x5020, 0xF7E4, 0x01CC,
    0x000F, 0xFFA5, 0x0093, 0x011C, 0xFFC4, 0x0012, 0xFE62, 0x0254, 0xF829,
    0xF7CC, 0xFF9D, 0xFEBE, 0x0125, 0xF93F, 0x45B0, 0x5090, 0xFD12, 0x0209,
    0xFFFD, 0x0093, 0xFF91, 0x0111, 0xFE9B, 0x0032, 0xFD06, 0x0217, 0xFC0F,
    0xFD5D, 0xFDDF, 0xFC84, 0xFDC1, 0x0103, 0x3730, 0x46E0, 0x0BB6, 0x0482,
    0x003F, 0xFF41, 0x023A, 0x0204, 0x0014, 0x0025, 0xFF13, 0x00DB, 0xF400,
    0xF3D0, 0xFED7, 0xFF40, 0x0297, 0xF314, 0x52A0, 0x5680, 0xF45A, 0x031C,
    0x0029, 0xFF31, 0x0145, 0x0140, 0x00C0, 0xFFEE, 0xFEF8, 0x02C0, 0xF5CC,
    0xF5B8, 0xFD03, 0xFE5C, 0x0075, 0xF426, 0x4BE0, 0x5620, 0xF9FE, 0x043B,
    0xFFEA, 0x0078, 0xFF1E, 0x02DA, 0xFF74, 0x0015, 0xFDD7, 0x058A, 0xF5A6,
    0xFA7C, 0xF95F, 0xFD9A, 0xFCED, 0xF895, 0x4050, 0x54E0, 0x01F8, 0x06F2,
    0x002F, 0xFF38, 0x02B6, 0x0319, 0x0012, 0x002C, 0xFF75, 0x01B1, 0xF1CC,
    0xF0A6, 0xFF48, 0xFF16, 0x02B8, 0xEFD8, 0x5540, 0x5AD0, 0xF184, 0x0472,
    0x0033, 0xFED6, 0x018F, 0x01F8, 0x01A6, 0xFFEF, 0xFFD7, 0x03BE, 0xF556,
    0xF294, 0xFB9B, 0xFCDF, 0xFF3D, 0xEE88, 0x4E50, 0x5B10, 0xF93E, 0x0775,
    0x002B, 0xFF12, 0xFF70, 0x0189, 0x025D, 0xFFA1, 0x00CF, 0x06B0, 0xF9D5,
    0xF6E6, 0xF82D, 0xF7CE, 0xF7C4, 0xEDF8, 0x4300, 0x58C0, 0x03E1, 0x1040,
    0xFFEB, 0xFF4E, 0x0271, 0x038A, 0x0079, 0xFFFB, 0xFF94, 0x032F, 0xF13E,
    0xEF28, 0xFF63, 0xFEDB, 0x021E, 0xEE88, 0x5480, 0x5D70, 0xF13A, 0x0525,
    0x003F, 0xFEAF, 0x00C9, 0x02AF, 0x01C4, 0x009E, 0xFF8B, 0x0620, 0xF68A,
    0xF0E4, 0xFA14, 0xFB34, 0xFF1F, 0xE90C, 0x4BC0, 0x60A0, 0xFA7B, 0x09D0,
    0x0063, 0xFEC7, 0xFF2E, 0xFF86, 0x0147, 0x0247, 0x0124, 0x08E6, 0xFEDB,
    0xFA61, 0xF728, 0xEF7C, 0xF458, 0xE3DC, 0x3DC0, 0x5A60, 0x0A58, 0x1A08,
    0x0076, 0xFEEF, 0x02BC, 0x0478, 0x00B8, 0x00D6, 0xFE7D, 0x02DE, 0xF18C,
    0xED78, 0xFD7D, 0xFD3B, 0x0350, 0xEC80, 0x5360, 0x6230, 0xF030, 0x0728,
    0x0075, 0xFEC2, 0xFF7E, 0x031C, 0x0158, 0x028D, 0xFE9F, 0x0749, 0xFA76,
    0xEFC4, 0xF81A, 0xF84D, 0x012C, 0xE2A4, 0x4520, 0x6760, 0xFE21, 0x0B50,
    0x0096, 0xFF1A, 0xFF30, 0xFE45, 0xFD2D, 0x0683, 0xFFF8, 0x08B0, 0x03B9,
    0xFFC4, 0xF8D5, 0xE724, 0xF73C, 0xDA08, 0x3388, 0x5AA0, 0x15A0, 0x1E04,
    0x003B, 0xFF27, 0x0207, 0x03F2, 0x01DA, 0x0120, 0xFE61, 0x0281, 0xF468,
    0xEDC4, 0xFB24, 0xFCE6, 0x033B, 0xED78, 0x4D40, 0x6540, 0xF252, 0x070A,
    0x0105, 0xFDFA, 0xFF3A, 0x0251, 0x01FA, 0x0467, 0xFD29, 0x07E8, 0xFE77,
    0xEE4C, 0xF68E, 0xF6B0, 0x03CD, 0xE00C, 0x3B40, 0x6E70, 0x02E1, 0x09A0,
    0x00D3, 0xFF6B, 0xFEB5, 0xFE76, 0xF9CD, 0x0A4C, 0xFEB9, 0x0782, 0x0820,
    0xFF02, 0xFA5A, 0xE414, 0xFDA7, 0xD100, 0x2A28, 0x61C0, 0x1C40, 0x1BE8,
    0x023A, 0xFE8E, 0x0424, 0x06C1, 0x02A3, 0x00F5, 0xFBBD, 0x04D0, 0xEFBC,
    0xE578, 0xFDD5, 0xFDC5, 0x053F, 0xEB6C, 0x50C0, 0x6780, 0xEDD4, 0x08A0,
    0x02CC, 0xFD3D, 0x0231, 0x0269, 0x05BC, 0x05BB, 0xFA05, 0x050E, 0xFD24,
    0xEA7C, 0xF7C4, 0xF5DC, 0x08CA, 0xE29C, 0x2C80, 0x7740, 0x0A4A, 0x0225,
    0x016B, 0xFF54, 0xFDAD, 0xFF22, 0xF86D, 0x0E38, 0xFAB1, 0x0721, 0x0CB8,
    0xFB29, 0xFA8F, 0xE690, 0x0978, 0xC960, 0x0EEA, 0x6E20, 0x36B0, 0x0A6C,
    0x0053, 0xFF7B, 0xFFF8, 0x002C, 0xFF5E, 0x0070, 0xFF1F, 0x030D, 0x0152,
    0x0011, 0x032F, 0xFEA6, 0x0038, 0x021A, 0x3200, 0x41B0, 0x0450, 0x0087,
    0x0068, 0xFFC4, 0x0026, 0xFF98, 0xFF54, 0x0077, 0xFEA8, 0x041C, 0x0394,
    0x01E4, 0xFFC9, 0xFBB3, 0xFEBA, 0x01A5, 0x1510, 0x4370, 0x2188, 0x022F,
    0x0010, 0x0015, 0xFFAD, 0xFF6F, 0xFF57, 0x0006, 0xFEFB, 0x0637, 0x0099,
    0x00A3, 0xFF17, 0xFE35, 0xFCD6, 0x00D9, 0x0A5C, 0x3680, 0x3A68, 0x04B2,
    0x0017, 0xFF81, 0x00E2, 0x00F4, 0xFF9B, 0x0021, 0xFF55, 0x01FB, 0xFAD9,
    0xFA18, 0x0201, 0xFF8B, 0x0133, 0xFB42, 0x42E0, 0x4B00, 0xFB8C, 0x0127,
    0x001A, 0xFFC3, 0x0005, 0x005E, 0xFEE3, 0x0038, 0xFE86, 0x02DB, 0xFCEF,
    0xFCB7, 0x02EC, 0xFDC0, 0xFFA2, 0xFF9D, 0x3300, 0x4AA0, 0x06FE, 0x0118,
    0x002C, 0xFFCB, 0x0037, 0xFF70, 0xFD88, 0x0029, 0xFD52, 0x054E, 0xFF45,
    0x00E9, 0x04BB, 0xFC66, 0xFC9E, 0x0229, 0x21B8, 0x37A0, 0x2278, 0x0430,
    0x0023, 0xFF09, 0x0181, 0x010F, 0xFFDE, 0x000C, 0xFEE3, 0x01CE, 0xF774,
    0xF71A, 0x0022, 0xFFAE, 0x0209, 0xF6D4, 0x4B80, 0x5180, 0xF7EE, 0x017A,
    0x001A, 0xFF6E, 0x00C2, 0x012D, 0xFFC4, 0x001A, 0xFE71, 0x0355, 0xF78A,
    0xF702, 0xFF71, 0xFF4C, 0x0143, 0xF732, 0x43E0, 0x5570, 0xFC81, 0x0160,
    0xFFFD, 0x00CE, 0xFF11, 0x0183, 0xFDAC, 0x0059, 0xFD8B, 0x0471, 0xFA46,
    0xFBD5, 0xFF90, 0xFD80, 0xFCF4, 0xFD4F, 0x3318, 0x4EC0, 0x0CE6, 0x0275,
    0x0048, 0xFF09, 0x0271, 0x01E7, 0x005B, 0x001D, 0xFEEE, 0x017A, 0xF3CA,
    0xF38C, 0xFE6B, 0xFF5E, 0x028F, 0xF29C, 0x51A0, 0x5810, 0xF45C, 0x031A,
    0x0043, 0xFED5, 0x0190, 0x013B, 0x016B, 0xFFE2, 0xFEC3, 0x046D, 0xF4D6,
    0xF49C, 0xFBC7, 0xFEE0, 0x00D4, 0xF1BC, 0x4A30, 0x5B20, 0xF9C6, 0x03DF,
    0xFFF3, 0x00FC, 0xFDEA, 0x03E3, 0xFFB0, 0x0011, 0xFC9B, 0x0A16, 0xF1AC,
    0xFB7A, 0xF5FE, 0x0002, 0xFD94, 0xF558, 0x3BE0, 0x5F90, 0xFF5A, 0x05EF,
    0x003E, 0xFF18, 0x029B, 0x035F, 0x005A, 0x001E, 0xFF31, 0x0237, 0xF1E2,
    0xF022, 0xFE8B, 0xFF12, 0x02B5, 0xEF70, 0x53E0, 0x5CC0, 0xF1BC, 0x04A8,
    0x006B, 0xFE74, 0x015E, 0x01D8, 0x02BF, 0x000A, 0xFF30, 0x0577, 0xF5E2,
    0xF162, 0xF979, 0xFCAD, 0xFFEF, 0xEBF8, 0x4AA0, 0x60A0, 0xFA56, 0x078F,
    0x0032, 0xFF8C, 0xFEA2, 0x00F6, 0x043D, 0xFFFD, 0xFEFE, 0x0896, 0xF855,
    0xF610, 0xF47A, 0xFAC4, 0xFC5A, 0xECB0, 0x3D68, 0x63A0, 0x0294, 0x0A96,
    0x0052, 0xFED3, 0x0292, 0x045A, 0x0090, 0x0075, 0xFECF, 0x03A8, 0xF14C,
    0xEE50, 0xFD84, 0xFE20, 0x0291, 0xED3C, 0x52C0, 0x6110, 0xF11E, 0x0670,
    0x0098, 0xFEC4, 0xFFC2, 0x0274, 0x0296, 0x018F, 0xFE47, 0x0754, 0xF8F0,
    0xF112, 0xF62C, 0xF9B7, 0x0040, 0xE600, 0x44A0, 0x6770, 0xFD84, 0x0AF8,
    0x0042, 0xFFBC, 0xFF17, 0xFE35, 0x02D5, 0x0315, 0xFEF1, 0x065F, 0x00AA,
    0xF877, 0xF334, 0xF36A, 0xFDD9, 0xE46C, 0x3608, 0x63C0, 0x0DE8, 0x0DC0,
    0x0091, 0xFE8C, 0x0259, 0x04DE, 0x0150, 0x00CE, 0xFE65, 0x03C2, 0xF26E,
    0xEC7C, 0xFBBE, 0xFD8C, 0x0325, 0xEC18, 0x4F80, 0x6670, 0xF0B0, 0x0756,
    0x00F5, 0xFF46, 0xFE78, 0x019E, 0x021C, 0x03D3, 0xFD04, 0x071C, 0xFEAA,
    0xF1C2, 0xF3CE, 0xF606, 0x024A, 0xE164, 0x38E8, 0x6FF0, 0x01FD, 0x0CE2,
    0x0024, 0x007F, 0xFF98, 0xFD86, 0xFEAF, 0x0643, 0xFE12, 0x03B2, 0x050A,
    0xFF9E, 0xF290, 0xED58, 0x0210, 0xDF80, 0x27D8, 0x63D0, 0x1CB4, 0x0D0E,
    0x0099, 0xFE65, 0x01B2, 0x03DF, 0x030B, 0x00E8, 0xFE17, 0x03CD, 0xF59A,
    0xECB4, 0xF8EB, 0xFD52, 0x02E3, 0xED74, 0x4760, 0x6B20, 0xF2F8, 0x0741,
    0x01AA, 0xFF05, 0xFECB, 0xFFAF, 0x0295, 0x0575, 0xFBB7, 0x05E6, 0x032D,
    0xF20A, 0xF2F4, 0xF3DE, 0x045E, 0xE174, 0x2A88, 0x78E0, 0x0619, 0x0BD6,
    0x0019, 0x0106, 0xFFD6, 0xFE13, 0xFB05, 0x0916, 0xFD6D, 0x01B3, 0x074F,
    0x01E6, 0xF41E, 0xEA00, 0x0608, 0xDBE0, 0x1F44, 0x64C0, 0x2548, 0x0B3E,
    0x0325, 0xFD47, 0x0476, 0x0682, 0x0305, 0x018D, 0xFC9A, 0x0379, 0xF2E2,
    0xE3E8, 0xFC3B, 0xFE7A, 0x03F2, 0xEE1C, 0x48A0, 0x6F00, 0xEBD8, 0x08EC,
    0x025E, 0xFFA6, 0xFEB9, 0x0076, 0x0620, 0x05F7, 0xFA40, 0x02EC, 0x0427,
    0xEEEC, 0xF614, 0xF300, 0x0615, 0xE898, 0x1480, 0x8920, 0x0610, 0x0711,
    0x0077, 0x00EC, 0x0039, 0xFE89, 0xF9A7, 0x0B48, 0xFC83, 0xFF5C, 0x074C,
    0x01EA, 0xF762, 0xE818, 0x0A36, 0xE320, 0x0830, 0x6960, 0x3438, 0x0342,
    0x004F, 0xFF71, 0xFFC2, 0x0049, 0xFF38, 0x0086, 0xFF57, 0x031E, 0x0142,
    0xFF99, 0x0398, 0xFEF0, 0x0009, 0x01D0, 0x2FB8, 0x4550, 0x0396, 0x0022,
    0x006C, 0xFF56, 0xFF77, 0xFFA2, 0xFF8E, 0x0044, 0xFF21, 0x053F, 0x02AF,
    0xFF02, 0x00B2, 0x0072, 0xFE7B, 0x016B, 0x158C, 0x5240, 0x1384, 0xFEE8,
    0x002B, 0xFF83, 0xFF75, 0x005E, 0xFED4, 0x0021, 0xFFAA, 0x064A, 0xFF01,
    0xFA56, 0x0671, 0xFF62, 0xFD00, 0xFEBE, 0x0A7A, 0x55B0, 0x1FE4, 0x00A2,
    0x001B, 0xFF6B, 0x00EF, 0x00F9, 0xFF95, 0x002B, 0xFF5B, 0x020C, 0xFAD4,
    0xF9D5, 0x0243, 0xFF9B, 0x0134, 0xFB05, 0x41E0, 0x4CB0, 0xFB1C, 0x0104,
    0x001D, 0xFFA9, 0xFFEE, 0x0093, 0xFE90, 0x0050, 0xFEDB, 0x0380, 0xFC74,
    0xFB05, 0x0464, 0xFE0F, 0xFF7A, 0xFDC4, 0x3138, 0x51D0, 0x03C7, 0x008B,
    0x0037, 0xFFA7, 0xFF80, 0xFFB7, 0xFCF1, 0x004B, 0xFE16, 0x07BF, 0xFD16,
    0xFCFE, 0x076E, 0xFF07, 0xFB54, 0xFFED, 0x2420, 0x4970, 0x11E0, 0x02A3,
    0x002D, 0xFEDF, 0x01B6, 0x00F6, 0xFFF6, 0x000D, 0xFECA, 0x0214, 0xF750,
    0xF700, 0x000A, 0xFFEA, 0x021A, 0xF6B4, 0x4AB0, 0x52C0, 0xF7A6, 0x0138,
    0x002F, 0xFF12, 0x0130, 0x0108, 0xFFEC, 0x0011, 0xFE70, 0x03DD, 0xF71E,
    0xF606, 0xFFF1, 0xFFC7, 0x01E8, 0xF5DC, 0x4290, 0x5980, 0xFB14, 0x0081,
    0x0017, 0x002D, 0xFFBF, 0x00F0, 0xFD49, 0x0053, 0xFE4D, 0x0514, 0xFA12,
    0xF8F0, 0x0414, 0xFDCC, 0xFDD5, 0xFAC5, 0x3168, 0x5680, 0x0814, 0x0093,
    0x0059, 0xFED9, 0x029E, 0x01E4, 0x0083, 0x0011, 0xFEC0, 0x01E4, 0xF390,
    0xF354, 0xFE3C, 0xFF9D, 0x02B1, 0xF264, 0x50F0, 0x5940, 0xF442, 0x02DA,
    0x0065, 0xFE86, 0x022E, 0x00E4, 0x01E7, 0xFFC1, 0xFE4B, 0x0528, 0xF41A,
    0xF380, 0xFBB2, 0xFFC6, 0x022C, 0xF08A, 0x4930, 0x5EF0, 0xF89D, 0x0270,
    0x0049, 0xFFB7, 0x0082, 0x00E5, 0x01AE, 0xFF4A, 0xFD2C, 0x08D6, 0xF35E,
    0xF69E, 0xFA9E, 0x0020, 0x0015, 0xF2DC, 0x3BC0, 0x63E0, 0xFDD8, 0x0289,
    0x004D, 0xFEFB, 0x029D, 0x038D, 0x0070, 0x0018, 0xFF11, 0x0283, 0xF1C6,
    0xEFD4, 0xFE33, 0xFF44, 0x02B6, 0xEF80, 0x52F0, 0x5E40, 0xF180, 0x048B,
    0x0093, 0xFE7B, 0x0157, 0x01D5, 0x0341, 0xFFC5, 0xFE5B, 0x05D0, 0xF5E0,
    0xF00C, 0xF8D0, 0xFE86, 0x01F1, 0xEC28, 0x47A0, 0x65D0, 0xF8D8, 0x04FB,
    0x0059, 0xFF6B, 0xFF6F, 0x0019, 0x05E0, 0xFEB5, 0xFE3A, 0x0892, 0xF782,
    0xF242, 0xF544, 0xFF68, 0x000E, 0xEDE0, 0x3A50, 0x6C40, 0xFE09, 0x0459,
    0x0070, 0xFE9B, 0x027B, 0x04CD, 0x009E, 0x0091, 0xFE82, 0x0425, 0xF132,
    0xEE04, 0xFC79, 0xFE5D, 0x02DA, 0xED0C, 0x50F0, 0x63A0, 0xF0E6, 0x0667,
    0x0086, 0xFF75, 0xFF11, 0x0284, 0x0398, 0x011C, 0xFD90, 0x0692, 0xFA29,
    0xF002, 0xF34C, 0xFCA5, 0x0288, 0xE7D8, 0x3E80, 0x6E40, 0xFD1E, 0x0737,
    0x003D, 0x0019, 0xFF03, 0xFDFE, 0x06AC, 0x0073, 0xFE47, 0x05D5, 0xFF33,
    0xF3A0, 0xEE80, 0xFD86, 0x01DD, 0xEA58, 0x2F40, 0x7260, 0x0786, 0x0344,
    0x00A2, 0xFE46, 0x0235, 0x04FA, 0x01DF, 0x008F, 0xFE2F, 0x0482, 0xF29E,
    0xEC38, 0xFA41, 0xFE5D, 0x0327, 0xEC7C, 0x4C30, 0x69F0, 0xF098, 0x0702,
    0x008F, 0x0030, 0xFE62, 0x0088, 0x0447, 0x02A9, 0xFCEC, 0x04AE, 0x008B,
    0xF1E2, 0xEE64, 0xFAB6, 0x03EE, 0xE740, 0x2EA0, 0x7920, 0x0173, 0x07ED,
    0x0006, 0x009C, 0x000B, 0xFC5E, 0x0494, 0x02D1, 0xFE5A, 0x01BD, 0x0468,
    0xF9B2, 0xE900, 0xFBB7, 0x0449, 0xEAF0, 0x1FAC, 0x75E0, 0x146C, 0xFF79,
    0x00D8, 0xFDEC, 0x018D, 0x03B0, 0x03F8, 0x0059, 0xFDAC, 0x0487, 0xF640,
    0xEC84, 0xF6FC, 0xFE9B, 0x0324, 0xEE38, 0x42D0, 0x6FB0, 0xF2B8, 0x068B,
    0x00BA, 0x004B, 0xFF2E, 0xFE60, 0x045B, 0x042F, 0xFC70, 0x0263, 0x0492,
    0xF4B6, 0xEB64, 0xF933, 0x04D4, 0xEA70, 0x1DFC, 0x8220, 0x05FC, 0x06DC,
    0xFFE0, 0x00EF, 0x0067, 0xFCB2, 0x0150, 0x0562, 0xFE82, 0xFF47, 0x071E,
    0xFCD4, 0xE850, 0xF922, 0x058F, 0xEB7C, 0x15D4, 0x7790, 0x1BE8, 0xFDE5,
    0x0310, 0xFCAF, 0x043B, 0x067D, 0x02E0, 0x017A, 0xFD49, 0x0250, 0xF506,
    0xE39C, 0xFB15, 0xFFFD, 0x03A1, 0xF0F0, 0x41C0, 0x7530, 0xEAA0, 0x07C8,
    0x016B, 0x008E, 0xFF5E, 0xFEE5, 0x061E, 0x0467, 0xFBBD, 0xFF89, 0x0559,
    0xF702, 0xEA3C, 0xF906, 0x042F, 0xF304, 0x087A, 0x8FC0, 0x05B1, 0x053B,
    0xFFF9, 0x003E, 0x016C, 0xFCE7, 0xFF81, 0x06EF, 0xFF7A, 0xFD63, 0x0527,
    0x0113, 0xEA4C, 0xF586, 0x0414, 0xF7E6, 0xFCFF, 0x82A0, 0x1F84, 0xFCF2,
    0x0057, 0xFF76, 0xFFD3, 0x001E, 0xFF18, 0x0097, 0xFF5F, 0x0335, 0x0163,
    0xFFC8, 0x0409, 0xFED2, 0xFFAF, 0x01A4, 0x2E98, 0x4810, 0x01EB, 0x0016,
    0x006F, 0xFF6C, 0xFED8, 0x0032, 0xFECE, 0x0073, 0xFF35, 0x050F, 0x025D,
    0xFDA8, 0x04A5, 0x00B5, 0xFEC1, 0x016A, 0x1648, 0x5AC0, 0x0868, 0xFE94,
    0x0033, 0xFFAC, 0xFE81, 0xFEFB, 0xFFA5, 0x0028, 0xFF82, 0x0771, 0x0191,
    0xF848, 0x067B, 0x0238, 0xFC19, 0x01C5, 0x0AE6, 0x6840, 0x098A, 0xFECA,
    0x001D, 0xFF65, 0x010E, 0x00F6, 0xFF97, 0x002E, 0xFF57, 0x0210, 0xFAD9,
    0xF9A0, 0x028B, 0xFF9E, 0x0138, 0xFAD6, 0x40F0, 0x4E40, 0xFA76, 0x00F3,
    0x0022, 0xFF7D, 0xFFF3, 0x00BC, 0xFE3B, 0x0075, 0xFF18, 0x037D, 0xFC78,
    0xF9C1, 0x065B, 0xFE04, 0xFFD6, 0xFCDA, 0x2FD0, 0x57E0, 0xFF1F, 0x0051,
    0x0038, 0xFFAE, 0xFE7C, 0xFF30, 0xFD36, 0x0082, 0xFE43, 0x08F6, 0xFD36,
    0xFB33, 0x0A5E, 0xFEC6, 0xFC3D, 0xFF13, 0x2248, 0x5A90, 0x0324, 0x00AE,
    0x002F, 0xFEC4, 0x01F7, 0x00D3, 0x0016, 0x000A, 0xFEBA, 0x0243, 0xF72C,
    0xF6F2, 0x0013, 0x0010, 0x0242, 0xF692, 0x4A00, 0x53B0, 0xF774, 0x00EC,
    0x0048, 0xFEA8, 0x01DF, 0x008F, 0x0020, 0x0002, 0xFE4F, 0x0414, 0xF6D4,
    0xF58A, 0x00A0, 0x0043, 0x02B8, 0xF56C, 0x4170, 0x5CA0, 0xF8FC, 0xFFB7,
    0x0030, 0xFF9F, 0x003D, 0x004C, 0xFCD0, 0x006B, 0xFEA4, 0x055C, 0xF9EB,
    0xF782, 0x0928, 0xFD1F, 0xFF1C, 0xFA1D, 0x2F58, 0x5DF0, 0x00A4, 0xFF95,
    0x0067, 0xFEA6, 0x02DE, 0x01D6, 0x006F, 0x0018, 0xFEA2, 0x0212, 0xF35E,
    0xF336, 0xFE4F, 0xFFE2, 0x02EF, 0xF28A, 0x5060, 0x5A20, 0xF3D0, 0x026F,
    0x008C, 0xFE3D, 0x02D7, 0x008E, 0x01EA, 0xFF96, 0xFDDF, 0x052C, 0xF38E,
    0xF2EA, 0xFC90, 0x00D6, 0x0387, 0xF0AC, 0x48C0, 0x6120, 0xF68C, 0x00D3,
    0x0089, 0xFEBA, 0x0237, 0xFFD8, 0x0124, 0xFF0F, 0xFDAC, 0x06C1, 0xF4EE,
    0xF32E, 0x005C, 0x006C, 0x0270, 0xF2AE, 0x3D40, 0x64F0, 0xFA7E, 0xFF5A,
    0x0062, 0xFED9, 0x02B1, 0x03B2, 0x0058, 0x0012, 0xFECF, 0x02DA, 0xF17C,
    0xEFA8, 0xFE3C, 0xFF91, 0x02EC, 0xEFC8, 0x51F0, 0x5FA0, 0xF0C2, 0x044D,
    0x00C6, 0xFE6A, 0x01C6, 0x01D6, 0x0332, 0xFF32, 0xFDAF, 0x0589, 0xF4FE,
    0xEF40, 0xF9C5, 0x00CC, 0x037C, 0xEE78, 0x45C0, 0x6970, 0xF51C, 0x0284,
    0x0092, 0xFF54, 0x005C, 0x00C2, 0x04C3, 0xFDDD, 0xFD89, 0x06B0, 0xF742,
    0xEEC8, 0xF9D2, 0x027A, 0x0332, 0xF06C, 0x3AC0, 0x6F80, 0xF800, 0xFFE9,
    0x00A1, 0xFE42, 0x0291, 0x0547, 0x0041, 0x0095, 0xFE2C, 0x04B7, 0xF0A0,
    0xEDC4, 0xFC7A, 0xFED7, 0x0315, 0xED94, 0x4FC0, 0x6580, 0xEFE0, 0x0611,
    0x009C, 0xFF74, 0xFF5E, 0x02F8, 0x044A, 0xFF7D, 0xFD5D, 0x05B0, 0xF93E,
    0xEE04, 0xF3DC, 0x012A, 0x03A3, 0xECEC, 0x3B28, 0x73D0, 0xF7D2, 0x032A,
    0x004A, 0x0058, 0xFEBE, 0x0051, 0x06BC, 0xFE08, 0xFE0F, 0x040B, 0xFDE8,
    0xEDB0, 0xF258, 0x03F7, 0x036F, 0xF196, 0x2E48, 0x7A50, 0xFB53, 0xFE98,
    0x00C3, 0xFE17, 0x0232, 0x056D, 0x01B2, 0x0037, 0xFDFB, 0x04B8, 0xF26C,
    0xEBD8, 0xF9FE, 0xFF8D, 0x0350, 0xEDB4, 0x49D0, 0x6CC0, 0xEF20, 0x0658,
    0x0066, 0x0026, 0xFED1, 0x0143, 0x062D, 0xFFFB, 0xFD96, 0x030A, 0xFF40,
    0xEE64, 0xEE2C, 0x0144, 0x03D7, 0xEFA8, 0x2B40, 0x8060, 0xF925, 0x033E,
    0x0015, 0x0092, 0xFF8F, 0xFDF0, 0x079F, 0xFEDF, 0xFEAF, 0x00ED, 0x02AF,
    0xF0EA, 0xEC20, 0x043E, 0x037B, 0xF4C8, 0x1FA4, 0x82A0, 0x002C, 0xFD13,
    0x00DC, 0xFDF5, 0x018D, 0x0426, 0x0385, 0xFFFA, 0xFD82, 0x0474, 0xF606,
    0xEC94, 0xF614, 0x009A, 0x0356, 0xF05E, 0x3FC8, 0x7300, 0xF110, 0x052F,
    0x005E, 0x003F, 0xFF77, 0xFF18, 0x06DB, 0x013F, 0xFDA5, 0x012B, 0x029D,
    0xF18A, 0xE91C, 0x015E, 0x0375, 0xF3EE, 0x1C24, 0x8940, 0xFC67, 0x0212,
    0xFFF6, 0x0085, 0x0047, 0xFC95, 0x06AF, 0x00BC, 0xFF2E, 0xFF64, 0x0556,
    0xF45C, 0xE91C, 0x0254, 0x02F6, 0xF690, 0x1430, 0x88A0, 0x0381, 0xFDA9,
    0x027F, 0xFCC0, 0x0467, 0x05D8, 0x02E4, 0x00E1, 0xFD07, 0x010C, 0xF63E,
    0xE400, 0xFAC6, 0x0241, 0x051F, 0xF2A2, 0x3E08, 0x78A0, 0xE9B4, 0x054A,
    0x0083, 0x009F, 0xFFC8, 0xFFF6, 0x0697, 0x01EC, 0xFD3A, 0xFF28, 0x037A,
    0xF4CC, 0xE6F8, 0x0294, 0x0307, 0xF950, 0x0CC0, 0x9020, 0xFE46, 0x00F1,
    0xFFF0, 0x000E, 0x00BC, 0xFC96, 0x0441, 0x02F9, 0xFFF4, 0xFF17, 0x0414,
    0xFB74, 0xE6FC, 0xFF7C, 0x0107, 0xFCA4, 0x0288, 0x9160, 0x05C1, 0xFF07,
    0x0056, 0xFF64, 0xFFD9, 0x000E, 0xFEF3, 0x00AA, 0xFF5D, 0x0331, 0x019B,
    0x0020, 0x0471, 0xFED4, 0xFFCC, 0x017B, 0x2D88, 0x4970, 0x00EA, 0x0010,
    0x0067, 0xFF48, 0xFEEF, 0x000F, 0xFE42, 0x0109, 0xFF57, 0x0466, 0x022D,
    0xFE6D, 0x0800, 0xFEF7, 0xFF5B, 0x0159, 0x16E0, 0x5DD0, 0x0283, 0xFED2,
    0x001D, 0xFFE6, 0xFEA0, 0x003B, 0xFF01, 0x00A3, 0xFFC5, 0x03A6, 0x011D,
    0xFEC5, 0x09A6, 0xFF7C, 0xFEB8, 0xFF3B, 0x069A, 0x6FE0, 0x00D8, 0xFFC7,
    0x001F, 0xFF60, 0x0116, 0x00FA, 0xFF99, 0x0037, 0xFF5D, 0x0214, 0xFAD6,
    0xF999, 0x02CE, 0xFF9D, 0x012A, 0xFACF, 0x4050, 0x4F30, 0xF9EB, 0x00F0,
    0x0026, 0xFF5F, 0x0017, 0x00AC, 0xFDD5, 0x00A9, 0xFF4D, 0x033A, 0xFCB1,
    0xF973, 0x080E, 0xFDD4, 0x0014, 0xFCCA, 0x2E10, 0x5C40, 0xFB18, 0x0063,
    0x001C, 0xFFA9, 0xFE94, 0xFF73, 0xFCFA, 0x00EC, 0xFF6D, 0x057E, 0xFEF6,
    0xFB71, 0x0E82, 0xFD42, 0xFE49, 0xFF06, 0x17B4, 0x66F0, 0xFDCE, 0xFF72,
    0x0035, 0xFEAF, 0x022C, 0x00C0, 0x0036, 0x0005, 0xFEAB, 0x025A, 0xF6FC,
    0xF6E6, 0x0019, 0x003C, 0x024D, 0xF6BC, 0x4990, 0x5440, 0xF728, 0x00BF,
    0x005F, 0xFE4E, 0x02A5, 0xFFD5, 0x005F, 0xFFFE, 0xFE34, 0x0412, 0xF6B0,
    0xF566, 0x0186, 0x0080, 0x030F, 0xF614, 0x3FF0, 0x5F00, 0xF6A4, 0xFF5F,
    0x0037, 0xFF57, 0x0026, 0x0040, 0xFC93, 0x00B5, 0xFF14, 0x04A0, 0xFAE2,
    0xF724, 0x0BD0, 0xFCB3, 0xFFEF, 0xFAF7, 0x29C0, 0x6680, 0xF97C, 0xFFEA,
    0x007A, 0xFE7A, 0x0306, 0x01DE, 0x0065, 0x000B, 0xFE70, 0x0259, 0xF316,
    0xF356, 0xFE72, 0x001D, 0x031E, 0xF2C0, 0x5000, 0x5A90, 0xF37A, 0x0214,
    0x00B3, 0xFDD8, 0x0397, 0x0007, 0x01D2, 0xFF82, 0xFD9B, 0x052D, 0xF2E4,
    0xF30A, 0xFDA0, 0x017D, 0x0420, 0xF1D0, 0x4840, 0x6250, 0xF440, 0xFFE8,
    0x00B3, 0xFE49, 0x029B, 0xFFAE, 0x0020, 0xFF50, 0xFDAE, 0x05D5, 0xF576,
    0xF354, 0x03F4, 0x0037, 0x0321, 0xF4E8, 0x3A88, 0x67C0, 0xF580, 0xFF00,
    0x0081, 0xFEAB, 0x02C5, 0x03FD, 0x0012, 0x0019, 0xFE8F, 0x0342, 0xF0EA,
    0xEF90, 0xFE8F, 0xFFBE, 0x0306, 0xF02C, 0x51A0, 0x6060, 0xF002, 0x0419,
    0x00FF, 0xFDF0, 0x02A7, 0x019D, 0x029E, 0xFF07, 0xFD77, 0x054F, 0xF3BC,
    0xEFAC, 0xFB3D, 0x01E1, 0x03B9, 0xF134, 0x4460, 0x6B70, 0xF184, 0x01A0,
    0x00D9, 0xFECD, 0x014D, 0x0194, 0x01BE, 0xFEA8, 0xFD68, 0x0576, 0xF680,
    0xEE24, 0xFFDF, 0x01E2, 0x0323, 0xF4A8, 0x39F8, 0x7120, 0xF0AA, 0x003E,
    0x014A, 0xFD02, 0x0330, 0x065D, 0xFE74, 0x0147, 0xFD03, 0x071B, 0xEE9C,
    0xECE0, 0xFF12, 0xFE00, 0x037D, 0xED44, 0x5040, 0x6690, 0xEDA8, 0x068C,
    0x00FE, 0xFE6B, 0x0018, 0x03BE, 0x03BC, 0xFE59, 0xFD77, 0x072D, 0xF5B0,
    0xEDA4, 0xF728, 0x0310, 0x0249, 0xF0FA, 0x3AF8, 0x75C0, 0xF1A2, 0x02E0,
    0x0081, 0xFFDD, 0xFF09, 0x0341, 0x02AC, 0xFE6E, 0xFE3F, 0x0397, 0xFB5A,
    0xEA40, 0xFC83, 0x02D3, 0x01F7, 0xF75A, 0x2F90, 0x7CB0, 0xEEEC, 0x00F9,
    0x015F, 0xFD01, 0x02F8, 0x06AF, 0xFF8D, 0x0102, 0xFCEE, 0x0697, 0xF032,
    0xEAF4, 0xFC60, 0xFF0D, 0x03AA, 0xEE24, 0x4A40, 0x6E20, 0xEC84, 0x069F,
    0x00D9, 0xFF09, 0xFF63, 0x0336, 0x05BB, 0xFE29, 0xFDDE, 0x0431, 0xFAFA,
    0xEC54, 0xF198, 0x0420, 0x01EE, 0xF536, 0x2C30, 0x8380, 0xF07C, 0x0338,
    0x0054, 0x0044, 0xFED7, 0x01EA, 0x049E, 0xFE16, 0xFEA7, 0x0201, 0xFEBD,
    0xEB2C, 0xF73A, 0x03D4, 0x0197, 0xF9D4, 0x2468, 0x85C0, 0xF014, 0x00A3,
    0x0093, 0xFE1F, 0x01DF, 0x04E2, 0x0273, 0xFFD8, 0xFDB1, 0x045C, 0xF4DC,
    0xECE0, 0xF5EA, 0x0219, 0x030B, 0xF25E, 0x3EF0, 0x74A0, 0xEEE0, 0x049D,
    0x00A1, 0xFF78, 0xFF92, 0x0140, 0x0710, 0xFEF8, 0xFE38, 0x01DC, 0xFE94,
    0xEEAC, 0xEBC0, 0x053A, 0x018C, 0xF99A, 0x1EA8, 0x8CA0, 0xF276, 0x01D0,
    0x0044, 0x0030, 0xFF3B, 0x0030, 0x05AC, 0xFE89, 0xFF20, 0x0117, 0x0105,
    0xEE1C, 0xF272, 0x0410, 0x00FB, 0xFBAF, 0x1A20, 0x8C20, 0xF2AA, 0x0074,
    0x020A, 0xFD40, 0x04E8, 0x04C0, 0x0376, 0x0031, 0xFD30, 0xFFC7, 0xF588,
    0xE5E0, 0xFB78, 0x0347, 0x05B9, 0xF302, 0x3E38, 0x7890, 0xE8DC, 0x03E8,
    0x0062, 0xFFBD, 0xFFD8, 0x0180, 0x0657, 0xFFE3, 0xFE69, 0x0020, 0x0039,
    0xF060, 0xECE4, 0x0564, 0x01EE, 0xFAB7, 0x151C, 0x8FA0, 0xF40E, 0x017E,
    0x003A, 0xFFFC, 0xFF72, 0xFFA7, 0x03F3, 0x0004, 0xFF7B, 0x00B2, 0x01B4,
    0xF5FE, 0xEF4C, 0x0299, 0x007B, 0xFD15, 0x0BAE, 0x8F40, 0xF9C4, 0x00A5,
    0x0056, 0xFF61, 0xFFD9, 0x0014, 0xFECE, 0x00A9, 0xFF67, 0x031A, 0x0178,
    0x00F7, 0x0473, 0xFEED, 0xFFE5, 0x0197, 0x2D88, 0x4950, 0x002E, 0x0011,
    0x0066, 0xFF58, 0xFF5B, 0xFED7, 0xFEFB, 0x0108, 0xFF49, 0x045F, 0x0156,
    0x0292, 0x0800, 0xFE45, 0xFEF1, 0x0228, 0x16E4, 0x5DB0, 0xFE79, 0x0012,
    0x0015, 0xFFE1, 0xFE90, 0xFFAD, 0xFEDA, 0x00BC, 0xFFF5, 0x03BD, 0xFF2C,
    0x008A, 0x0AF8, 0xFEC0, 0xFE5E, 0x011A, 0x06A7, 0x6FE0, 0xFEA8, 0x0072,
    0x001F, 0xFF5D, 0x012A, 0x00F0, 0xFF9D, 0x0037, 0xFF60, 0x0214, 0xFACF,
    0xF9EB, 0x02CE, 0xFF99, 0x0117, 0xFAD6, 0x4050, 0x4F30, 0xF999, 0x00FA,
    0x0026, 0xFF4D, 0x0014, 0x0063, 0xFDD4, 0x00A9, 0xFF5F, 0x033A, 0xFCCA,
    0xFB18, 0x080E, 0xFDD5, 0x0017, 0xFCB1, 0x2E10, 0x5C40, 0xF972, 0x00AC,
    0x001A, 0xFF73, 0xFE43, 0xFF79, 0xFD1C, 0x00FD, 0xFFAD, 0x0579, 0xFF10,
    0xFDA5, 0x0ED8, 0xFCDE, 0xFE89, 0xFF03, 0x1798, 0x6720, 0xFB4A, 0xFF82,
    0x0035, 0xFEAB, 0x024D, 0x00BF, 0x003C, 0x0005, 0xFEAF, 0x025A, 0xF6BC,
    0xF728, 0x0019, 0x0036, 0x022C, 0xF6FC, 0x4990, 0x5440, 0xF6E6, 0x00C0,
    0x005F, 0xFE34, 0x030F, 0xFF5F, 0x0080, 0xFFFE, 0xFE4E, 0x0412, 0xF614,
    0xF6A4, 0x0186, 0x005F, 0x02A5, 0xF6B0, 0x3FF0, 0x5F00, 0xF566, 0xFFD5,
    0x0036, 0xFF16, 0xFFEB, 0xFFF1, 0xFCA9, 0x00B9, 0xFF58, 0x049C, 0xFAFE,
    0xF970, 0x0BE2, 0xFC8A, 0x0022, 0xFAE9, 0x29B0, 0x6690, 0xF718, 0x0047,
    0x007A, 0xFE70, 0x031E, 0x0214, 0x001D, 0x000B, 0xFE7A, 0x0259, 0xF2C0,
    0xF37A, 0xFE72, 0x0065, 0x0306, 0xF316, 0x5000, 0x5A90, 0xF356, 0x01DE,
    0x00B3, 0xFD9B, 0x0420, 0xFFE8, 0x017D, 0xFF82, 0xFDD8, 0x052D, 0xF1D0,
    0xF440, 0xFDA0, 0x01D2, 0x0397, 0xF2E4, 0x4840, 0x6250, 0xF30A, 0x0007,
    0x00B2, 0xFDB1, 0x031E, 0xFF03, 0x0034, 0xFF51, 0xFE4A, 0x05D3, 0xF4EC,
    0xF57C, 0x03F8, 0x001D, 0x0298, 0xF578, 0x3A80, 0x67D0, 0xF350, 0xFFB1,
    0x0081, 0xFE8F, 0x0306, 0x0419, 0xFFBE, 0x0019, 0xFEAB, 0x0342, 0xF02C,
    0xF002, 0xFE8F, 0x0012, 0x02C5, 0xF0EA, 0x51A0, 0x6060, 0xEF90, 0x03FD,
    0x00FF, 0xFD77, 0x03B9, 0x01A0, 0x01E1, 0xFF07, 0xFDF0, 0x054F, 0xF134,
    0xF184, 0xFB3D, 0x029E, 0x02A7, 0xF3BC, 0x4460, 0x6B70, 0xEFAC, 0x019D,
    0x00D9, 0xFD69, 0x0321, 0x0040, 0x01E1, 0xFEA9, 0xFECE, 0x0574, 0xF4AA,
    0xF0A6, 0xFFE1, 0x01BC, 0x014B, 0xF682, 0x39F8, 0x7130, 0xEE20, 0x0196,
    0x014A, 0xFD03, 0x037D, 0x068C, 0xFE00, 0x0147, 0xFD02, 0x071B, 0xED44,
    0xEDA8, 0xFF12, 0xFE74, 0x0330, 0xEE9C, 0x5040, 0x6690, 0xECE0, 0x065D,
    0x00FE, 0xFD77, 0x0249, 0x02E0, 0x0310, 0xFE59, 0xFE6B, 0x072D, 0xF0FA,
    0xF1A2, 0xF728, 0x03BC, 0x0018, 0xF5B0, 0x3AF8, 0x75C0, 0xEDA4, 0x03BE,
    0x0080, 0xFE3F, 0x01F5, 0x00FC, 0x02D0, 0xFE6F, 0xFFDD, 0x0396, 0xF75C,
    0xEEE8, 0xFC86, 0x02A9, 0xFF09, 0xFB5B, 0x2F90, 0x7CB0, 0xEA40, 0x0343,
    0x015F, 0xFCEE, 0x03AA, 0x069F, 0xFF0D, 0x0102, 0xFD01, 0x0697, 0xEE24,
    0xEC84, 0xFC60, 0xFF8D, 0x02F8, 0xF032, 0x4A40, 0x6E20, 0xEAF4, 0x06AF,
    0x00D9, 0xFDDE, 0x01EE, 0x0338, 0x0420, 0xFE29, 0xFF09, 0x0431, 0xF536,
    0xF07C, 0xF198, 0x05BB, 0xFF63, 0xFAFA, 0x2C30, 0x8380, 0xEC54, 0x0336,
    0x0054, 0xFEA7, 0x0197, 0x00A4, 0x03D3, 0xFE17, 0x0044, 0x0200, 0xF9D4,
    0xF014, 0xF73A, 0x049E, 0xFED7, 0xFEBD, 0x2468, 0x85C0, 0xEB2C, 0x01EA,
    0x0093, 0xFDB1, 0x030B, 0x049D, 0x0219, 0xFFD8, 0xFE1F, 0x045C, 0xF25E,
    0xEEE0, 0xF5EA, 0x0273, 0x01DF, 0xF4DC, 0x3EF0, 0x74A0, 0xECE0, 0x04E2,
    0x00A1, 0xFE38, 0x018C, 0x01D0, 0x053A, 0xFEF8, 0xFF78, 0x01DC, 0xF99A,
    0xF276, 0xEBC0, 0x0710, 0xFF92, 0xFE94, 0x1EA8, 0x8CA0, 0xEEAC, 0x0140,
    0x0044, 0xFF20, 0x00FB, 0x0074, 0x0410, 0xFE89, 0x0030, 0x0117, 0xFBAF,
    0xF2A8, 0xF272, 0x05AC, 0xFF3B, 0x0105, 0x1A20, 0x8C20, 0xEE1C, 0x0030,
    0x020A, 0xFD2F, 0x05B9, 0x03E8, 0x0347, 0x0031, 0xFD40, 0xFFC7, 0xF302,
    0xE8DC, 0xFB79, 0x0376, 0x04E8, 0xF588, 0x3E38, 0x7890, 0xE5E0, 0x04C0,
    0x0062, 0xFE69, 0x01EE, 0x017E, 0x0564, 0xFFE3, 0xFFBD, 0x0020, 0xFAB7,
    0xF40E, 0xECE4, 0x0657, 0xFFD8, 0x0039, 0x151C, 0x8FA0, 0xF060, 0x0180,
    0x003A, 0xFF7B, 0x007B, 0x00A5, 0x0299, 0x0005, 0xFFFC, 0x00B2, 0xFD15,
    0xF9C4, 0xEF4C, 0x03F3, 0xFF72, 0x01B4, 0x0BAE, 0x8F40, 0xF5FE, 0xFFA7,
    0x0057, 0xFF5F, 0xFFAF, 0x0016, 0xFED2, 0x0097, 0xFF76, 0x0335, 0x01A4,
    0x01EB, 0x0409, 0xFF18, 0xFFD3, 0x0163, 0x2E98, 0x4810, 0xFFC8, 0x001E,
    0x006F, 0xFF35, 0xFEC1, 0xFE94, 0x00B5, 0x0073, 0xFF6C, 0x050F, 0x016A,
    0x0868, 0x04A5, 0xFECE, 0xFED8, 0x025D, 0x1648, 0x5AC0, 0xFDA8, 0x0032,
    0x0033, 0xFF82, 0xFC19, 0xFECA, 0x0238, 0x0028, 0xFFAC, 0x0771, 0x01C5,
    0x098A, 0x067B, 0xFFA5, 0xFE81, 0x0191, 0x0AE6, 0x6840, 0xF848, 0xFEFB,
    0x001D, 0xFF57, 0x0138, 0x00F3, 0xFF9E, 0x002E, 0xFF65, 0x0210, 0xFAD6,
    0xFA76, 0x028B, 0xFF97, 0x010E, 0xFAD9, 0x40F0, 0x4E40, 0xF9A0, 0x00F6,
    0x0022, 0xFF18, 0xFFD6, 0x0051, 0xFE04, 0x0075, 0xFF7D, 0x037D, 0xFCDA,
    0xFF1F, 0x065B, 0xFE3B, 0xFFF3, 0xFC78, 0x2FD0, 0x57E0, 0xF9C1, 0x00BC,
    0x0038, 0xFE43, 0xFC3D, 0x00AE, 0xFEC6, 0x0082, 0xFFAE, 0x08F6, 0xFF13,
    0x0324, 0x0A5E, 0xFD36, 0xFE7C, 0xFD36, 0x2248, 0x5A90, 0xFB33, 0xFF30,
    0x002F, 0xFEBA, 0x0242, 0x00EC, 0x0010, 0x000A, 0xFEC4, 0x0243, 0xF692,
    0xF774, 0x0013, 0x0016, 0x01F7, 0xF72C, 0x4A00, 0x53B0, 0xF6F2, 0x00D3,
    0x0048, 0xFE4F, 0x02B8, 0xFFB7, 0x0043, 0x0002, 0xFEA8, 0x0414, 0xF56C,
    0xF8FC, 0x00A0, 0x0020, 0x01DF, 0xF6D4, 0x4170, 0x5CA0, 0xF58A, 0x008F,
    0x0030, 0xFEA4, 0xFF1C, 0xFF95, 0xFD1F, 0x006B, 0xFF9F, 0x055C, 0xFA1D,
    0x00A4, 0x0928, 0xFCD0, 0x003D, 0xF9EB, 0x2F58, 0x5DF0, 0xF782, 0x004C,
    0x0067, 0xFEA2, 0x02EF, 0x026F, 0xFFE2, 0x0018, 0xFEA6, 0x0212, 0xF28A,
    0xF3D0, 0xFE4F, 0x006F, 0x02DE, 0xF35E, 0x5060, 0x5A20, 0xF336, 0x01D6,
    0x008C, 0xFDDF, 0x0387, 0x00D3, 0x00D6, 0xFF96, 0xFE3D, 0x052C, 0xF0AC,
    0xF68C, 0xFC90, 0x01EA, 0x02D7, 0xF38E, 0x48C0, 0x6120, 0xF2EA, 0x008E,
    0x0089, 0xFDAC, 0x0270, 0xFF5A, 0x006C, 0xFF0F, 0xFEBA, 0x06C1, 0xF2AE,
    0xFA7E, 0x005C, 0x0124, 0x0237, 0xF4EE, 0x3D40, 0x64F0, 0xF32E, 0xFFD8,
    0x0062, 0xFECF, 0x02EC, 0x044D, 0xFF91, 0x0012, 0xFED9, 0x02DA, 0xEFC8,
    0xF0C2, 0xFE3C, 0x0058, 0x02B1, 0xF17C, 0x51F0, 0x5FA0, 0xEFA8, 0x03B2,
    0x00C6, 0xFDAF, 0x037C, 0x0284, 0x00CC, 0xFF32, 0xFE6A, 0x0589, 0xEE78,
    0xF51C, 0xF9C5, 0x0332, 0x01C6, 0xF4FE, 0x45C0, 0x6970, 0xEF40, 0x01D6,
    0x0092, 0xFD89, 0x0332, 0xFFE9, 0x027A, 0xFDDD, 0xFF54, 0x06B0, 0xF06C,
    0xF800, 0xF9D2, 0x04C3, 0x005C, 0xF742, 0x3AC0, 0x6F80, 0xEEC8, 0x00C2,
    0x00A1, 0xFE2C, 0x0315, 0x0611, 0xFED7, 0x0095, 0xFE42, 0x04B7, 0xED94,
    0xEFE0, 0xFC7A, 0x0041, 0x0291, 0xF0A0, 0x4FC0, 0x6580, 0xEDC4, 0x0547,
    0x009C, 0xFD5D, 0x03A3, 0x032A, 0x012A, 0xFF7D, 0xFF74, 0x05B0, 0xECEC,
    0xF7D2, 0xF3DC, 0x044A, 0xFF5E, 0xF93E, 0x3B28, 0x73D0, 0xEE04, 0x02F8,
    0x004A, 0xFE0F, 0x036F, 0xFE98, 0x03F7, 0xFE08, 0x0058, 0x040B, 0xF196,
    0xFB53, 0xF258, 0x06BC, 0xFEBE, 0xFDE8, 0x2E48, 0x7A50, 0xEDB0, 0x0051,
    0x00C3, 0xFDFB, 0x0350, 0x0658, 0xFF8D, 0x0037, 0xFE17, 0x04B8, 0xEDB4,
    0xEF20, 0xF9FE, 0x01B2, 0x0232, 0xF26C, 0x49D0, 0x6CC0, 0xEBD8, 0x056D,
    0x0066, 0xFD96, 0x03D7, 0x033E, 0x0144, 0xFFFB, 0x0026, 0x030A, 0xEFA8,
    0xF925, 0xEE2C, 0x062D, 0xFED1, 0xFF40, 0x2B40, 0x8060, 0xEE64, 0x0143,
    0x0015, 0xFEAF, 0x037B, 0xFD13, 0x043E, 0xFEDF, 0x0092, 0x00ED, 0xF4C8,
    0x002C, 0xEC20, 0x079F, 0xFF8F, 0x02AF, 0x1FA4, 0x82A0, 0xF0EA, 0xFDF0,
    0x00DC, 0xFD82, 0x0356, 0x052F, 0x009A, 0xFFFA, 0xFDF5, 0x0474, 0xF05E,
    0xF110, 0xF614, 0x0385, 0x018D, 0xF606, 0x3FC8, 0x7300, 0xEC94, 0x0426,
    0x005E, 0xFDA5, 0x0375, 0x0212, 0x015E, 0x013F, 0x003F, 0x012B, 0xF3EE,
    0xFC67, 0xE91C, 0x06DB, 0xFF77, 0x029D, 0x1C24, 0x8940, 0xF18A, 0xFF18,
    0xFFF6, 0xFF2E, 0x02F6, 0xFDA9, 0x0254, 0x00BC, 0x0085, 0xFF64, 0xF690,
    0x0381, 0xE91C, 0x06AF, 0x0047, 0x0556, 0x1430, 0x88A0, 0xF45C, 0xFC95,
    0x027F, 0xFD07, 0x051F, 0x054A, 0x0241, 0x00E1, 0xFCC0, 0x010C, 0xF2A2,
    0xE9B4, 0xFAC6, 0x02E4, 0x0467, 0xF63E, 0x3E08, 0x78A0, 0xE400, 0x05D8,
    0x0083, 0xFD3A, 0x0307, 0x00F1, 0x0294, 0x01EC, 0x009F, 0xFF28, 0xF950,
    0xFE46, 0xE6F8, 0x0697, 0xFFC8, 0x037A, 0x0CC0, 0x9020, 0xF4CC, 0xFFF6,
    0xFFF0, 0xFFF4, 0x0107, 0xFF07, 0xFF7C, 0x02F9, 0x000E, 0xFF17, 0xFCA4,
    0x05C1, 0xE6FC, 0x0441, 0x00BC, 0x0414, 0x0288, 0x9160, 0xFB74, 0xFC96,
    0x004F, 0xFF57, 0x0009, 0x0022, 0xFEF0, 0x0086, 0xFF71, 0x031E, 0x01D0,
    0x0396, 0x0398, 0xFF38, 0xFFC2, 0x0142, 0x2FB8, 0x4550, 0xFF99, 0x0049,
    0x006C, 0xFF21, 0xFE7B, 0xFEE8, 0x0072, 0x0044, 0xFF56, 0x053F, 0x016B,
    0x1384, 0x00B2, 0xFF8E, 0xFF77, 0x02AF, 0x158C, 0x5240, 0xFF02, 0xFFA2,
    0x002B, 0xFFAA, 0xFD00, 0x00A2, 0xFF62, 0x0021, 0xFF83, 0x064A, 0xFEBE,
    0x1FE4, 0x0671, 0xFED4, 0xFF75, 0xFF01, 0x0A7A, 0x55B0, 0xFA56, 0x005E,
    0x001B, 0xFF5B, 0x0134, 0x0104, 0xFF9B, 0x002B, 0xFF6B, 0x020C, 0xFB05,
    0xFB1C, 0x0243, 0xFF95, 0x00EF, 0xFAD4, 0x41E0, 0x4CB0, 0xF9D5, 0x00F9,
    0x001D, 0xFEDB, 0xFF7A, 0x008B, 0xFE0F, 0x0050, 0xFFA9, 0x0380, 0xFDC4,
    0x03C7, 0x0464, 0xFE90, 0xFFEE, 0xFC74, 0x3138, 0x51D0, 0xFB05, 0x0093,
    0x0037, 0xFE16, 0xFB54, 0x02A3, 0xFF07, 0x004B, 0xFFA7, 0x07BF, 0xFFED,
    0x11E0, 0x076E, 0xFCF1, 0xFF80, 0xFD16, 0x2420, 0x4970, 0xFCFE, 0xFFB7,
    0x002D, 0xFECA, 0x021A, 0x0138, 0xFFEA, 0x000D, 0xFEDF, 0x0214, 0xF6B4,
    0xF7A6, 0x000A, 0xFFF6, 0x01B6, 0xF750, 0x4AB0, 0x52C0, 0xF700, 0x00F6,
    0x002F, 0xFE70, 0x01E8, 0x0081, 0xFFC7, 0x0011, 0xFF12, 0x03DD, 0xF5DC,
    0xFB14, 0xFFF1, 0xFFEC, 0x0130, 0xF71E, 0x4290, 0x5980, 0xF606, 0x0108,
    0x0017, 0xFE4D, 0xFDD5, 0x0093, 0xFDCC, 0x0053, 0x002D, 0x0514, 0xFAC5,
    0x0814, 0x0414, 0xFD49, 0xFFBF, 0xFA12, 0x3168, 0x5680, 0xF8F0, 0x00F0,
    0x0059, 0xFEC0, 0x02B1, 0x02DA, 0xFF9D, 0x0011, 0xFED9, 0x01E4, 0xF264,
    0xF442, 0xFE3C, 0x0083, 0x029E, 0xF390, 0x50F0, 0x5940, 0xF354, 0x01E4,
    0x0065, 0xFE4B, 0x022C, 0x0270, 0xFFC6, 0xFFC1, 0xFE86, 0x0528, 0xF08A,
    0xF89D, 0xFBB2, 0x01E7, 0x022E, 0xF41A, 0x4930, 0x5EF0, 0xF380, 0x00E4,
    0x0049, 0xFD2C, 0x0015, 0x0289, 0x0020, 0xFF4A, 0xFFB7, 0x08D6, 0xF2DC,
    0xFDD8, 0xFA9E, 0x01AE, 0x0082, 0xF35E, 0x3BC0, 0x63E0, 0xF69E, 0x00E5,
    0x004D, 0xFF11, 0x02B6, 0x048B, 0xFF44, 0x0018, 0xFEFB, 0x0283, 0xEF80,
    0xF180, 0xFE33, 0x0070, 0x029D, 0xF1C6, 0x52F0, 0x5E40, 0xEFD4, 0x038D,
    0x0093, 0xFE5B, 0x01F1, 0x04FB, 0xFE86, 0xFFC5, 0xFE7B, 0x05D0, 0xEC28,
    0xF8D8, 0xF8D0, 0x0341, 0x0157, 0xF5E0, 0x47A0, 0x65D0, 0xF00C, 0x01D5,
    0x0059, 0xFE3A, 0x000E, 0x0459, 0xFF68, 0xFEB5, 0xFF6B, 0x0892, 0xEDE0,
    0xFE09, 0xF544, 0x05E0, 0xFF6F, 0xF782, 0x3A50, 0x6C40, 0xF242, 0x0019,
    0x0070, 0xFE82, 0x02DA, 0x0667, 0xFE5D, 0x0091, 0xFE9B, 0x0425, 0xED0C,
    0xF0E6, 0xFC79, 0x009E, 0x027B, 0xF132, 0x50F0, 0x63A0, 0xEE04, 0x04CD,
    0x0086, 0xFD90, 0x0288, 0x0737, 0xFCA5, 0x011C, 0xFF75, 0x0692, 0xE7D8,
    0xFD1E, 0xF34C, 0x0398, 0xFF11, 0xFA29, 0x3E80, 0x6E40, 0xF002, 0x0284,
    0x003D, 0xFE47, 0x01DD, 0x0344, 0xFD86, 0x0073, 0x0019, 0x05D5, 0xEA58,
    0x0786, 0xEE80, 0x06AC, 0xFF03, 0xFF33, 0x2F40, 0x7260, 0xF3A0, 0xFDFE,
    0x00A2, 0xFE2F, 0x0327, 0x0702, 0xFE5D, 0x008F, 0xFE46, 0x0482, 0xEC7C,
    0xF098, 0xFA41, 0x01DF, 0x0235, 0xF29E, 0x4C30, 0x69F0, 0xEC38, 0x04FA,
    0x008F, 0xFCEC, 0x03EE, 0x07ED, 0xFAB6, 0x02A9, 0x0030, 0x04AE, 0xE740,
    0x0173, 0xEE64, 0x0447, 0xFE62, 0x008B, 0x2EA0, 0x7920, 0xF1E2, 0x0088,
    0x0006, 0xFE5A, 0x0449, 0xFF79, 0xFBB7, 0x02D1, 0x009C, 0x01BD, 0xEAF0,
    0x146C, 0xE900, 0x0494, 0x000B, 0x0468, 0x1FAC, 0x75E0, 0xF9B2, 0xFC5E,
    0x00D8, 0xFDAC, 0x0324, 0x068B, 0xFE9B, 0x0059, 0xFDEC, 0x0487, 0xEE38,
    0xF2B8, 0xF6FC, 0x03F8, 0x018D, 0xF640, 0x42D0, 0x6FB0, 0xEC84, 0x03B0,
    0x00BA, 0xFC70, 0x04D4, 0x06DC, 0xF933, 0x042F, 0x004B, 0x0263, 0xEA70,
    0x05FC, 0xEB64, 0x045B, 0xFF2E, 0x0492, 0x1DFC, 0x8220, 0xF4B6, 0xFE60,
    0xFFE0, 0xFE82, 0x058F, 0xFDE5, 0xF922, 0x0562, 0x00EF, 0xFF47, 0xEB7C,
    0x1BE8, 0xE850, 0x0150, 0x0067, 0x071E, 0x15D4, 0x7790, 0xFCD4, 0xFCB2,
    0x0310, 0xFD49, 0x03A1, 0x07C8, 0xFFFD, 0x017A, 0xFCAF, 0x0250, 0xF0F0,
    0xEAA0, 0xFB15, 0x02E0, 0x043B, 0xF506, 0x41C0, 0x7530, 0xE39C, 0x067D,
    0x016B, 0xFBBD, 0x042F, 0x053B, 0xF906, 0x0467, 0x008E, 0xFF89, 0xF304,
    0x05B1, 0xEA3C, 0x061E, 0xFF5E, 0x0559, 0x087A, 0x8FC0, 0xF702, 0xFEE5,
    0xFFF9, 0xFF7A, 0x0414, 0xFCF2, 0xF586, 0x06EF, 0x003E, 0xFD63, 0xF7E6,
    0x1F84, 0xEA4C, 0xFF81, 0x016C, 0x0527, 0xFCFF, 0x82A0, 0x0113, 0xFCE7,
    0x0053, 0xFF1F, 0x0038, 0x0087, 0xFEA6, 0x0070, 0xFF7B, 0x030D, 0x021A,
    0x0450, 0x032F, 0xFF5E, 0xFFF8, 0x0152, 0x3200, 0x41B0, 0x0011, 0x002C,
    0x0068, 0xFEA8, 0xFEBA, 0x022F, 0xFBB3, 0x0077, 0xFFC4, 0x041C, 0x01A5,
    0x2188, 0xFFC9, 0xFF54, 0x0026, 0x0394, 0x1510, 0x4370, 0x01E4, 0xFF98,
    0x0010, 0xFEFB, 0xFCD6, 0x04B2, 0xFE35, 0x0006, 0x0015, 0x0637, 0x00D9,
    0x3A68, 0xFF17, 0xFF57, 0xFFAD, 0x0099, 0x0A5C, 0x3680, 0x00A3, 0xFF6F,
    0x0017, 0xFF55, 0x0133, 0x0127, 0xFF8B, 0x0021, 0xFF81, 0x01FB, 0xFB42,
    0xFB8C, 0x0201, 0xFF9B, 0x00E2, 0xFAD9, 0x42E0, 0x4B00, 0xFA18, 0x00F4,
    0x001A, 0xFE86, 0xFFA2, 0x0118, 0xFDC0, 0x0038, 0xFFC3, 0x02DB, 0xFF9D,
    0x06FE, 0x02EC, 0xFEE3, 0x0005, 0xFCEF, 0x3300, 0x4AA0, 0xFCB7, 0x005E,
    0x002C, 0xFD52, 0xFC9E, 0x0430, 0xFC66, 0x0029, 0xFFCB, 0x054E, 0x0229,
    0x2278, 0x04BB, 0xFD88, 0x0037, 0xFF45, 0x21B8, 0x37A0, 0x00E9, 0xFF70,
    0x0023, 0xFEE3, 0x0209, 0x017A, 0xFFAE, 0x000C, 0xFF09, 0x01CE, 0xF6D4,
    0xF7EE, 0x0022, 0xFFDE, 0x0181, 0xF774, 0x4B80, 0x5180, 0xF71A, 0x010F,
    0x001A, 0xFE71, 0x0143, 0x0160, 0xFF4C, 0x001A, 0xFF6E, 0x0355, 0xF732,
    0xFC81, 0xFF71, 0xFFC4, 0x00C2, 0xF78A, 0x43E0, 0x5570, 0xF702, 0x012D,
    0xFFFD, 0xFD8B, 0xFCF4, 0x0275, 0xFD80, 0x0059, 0x00CE, 0x0471, 0xFD4F,
    0x0CE6, 0xFF90, 0xFDAC, 0xFF11, 0xFA46, 0x3318, 0x4EC0, 0xFBD5, 0x0183,
    0x0048, 0xFEEE, 0x028F, 0x031A, 0xFF5E, 0x001D, 0xFF09, 0x017A, 0xF29C,
    0xF45C, 0xFE6B, 0x005B, 0x0271, 0xF3CA, 0x51A0, 0x5810, 0xF38C, 0x01E7,
    0x0043, 0xFEC3, 0x00D4, 0x03DF, 0xFEE0, 0xFFE2, 0xFED5, 0x046D, 0xF1BC,
    0xF9C6, 0xFBC7, 0x016B, 0x0190, 0xF4D6, 0x4A30, 0x5B20, 0xF49C, 0x013B,
    0xFFF3, 0xFC9B, 0xFD94, 0x05EF, 0x0002, 0x0011, 0x00FC, 0x0A16, 0xF558,
    0xFF5A, 0xF5FE, 0xFFB0, 0xFDEA, 0xF1AC, 0x3BE0, 0x5F90, 0xFB7A, 0x03E3,
    0x003E, 0xFF31, 0x02B5, 0x04A8, 0xFF12, 0x001E, 0xFF18, 0x0237, 0xEF70,
    0xF1BC, 0xFE8B, 0x005A, 0x029B, 0xF1E2, 0x53E0, 0x5CC0, 0xF022, 0x035F,
    0x006B, 0xFF30, 0xFFEF, 0x078F, 0xFCAD, 0x000A, 0xFE74, 0x0577, 0xEBF8,
    0xFA56, 0xF979, 0x02BF, 0x015E, 0xF5E2, 0x4AA0, 0x60A0, 0xF162, 0x01D8,
    0x0032, 0xFEFE, 0xFC5A, 0x0A96, 0xFAC4, 0xFFFD, 0xFF8C, 0x0896, 0xECB0,
    0x0294, 0xF47A, 0x043D, 0xFEA2, 0xF855, 0x3D68, 0x63A0, 0xF610, 0x00F6,
    0x0052, 0xFECF, 0x0291, 0x0670, 0xFE20, 0x0075, 0xFED3, 0x03A8, 0xED3C,
    0xF11E, 0xFD84, 0x0090, 0x0292, 0xF14C, 0x52C0, 0x6110, 0xEE50, 0x045A,
    0x0098, 0xFE47, 0x0040, 0x0AF8, 0xF9B7, 0x018F, 0xFEC4, 0x0754, 0xE600,
    0xFD84, 0xF62C, 0x0296, 0xFFC2, 0xF8F0, 0x44A0, 0x6770, 0xF112, 0x0274,
    0x0042, 0xFEF1, 0xFDD9, 0x0DC0, 0xF36A, 0x0315, 0xFFBC, 0x065F, 0xE46C,
    0x0DE8, 0xF334, 0x02D5, 0xFF17, 0x00AA, 0x3608, 0x63C0, 0xF877, 0xFE35,
    0x0091, 0xFE65, 0x0325, 0x0756, 0xFD8C, 0x00CE, 0xFE8C, 0x03C2, 0xEC18,
    0xF0B0, 0xFBBE, 0x0150, 0x0259, 0xF26E, 0x4F80, 0x6670, 0xEC7C, 0x04DE,
    0x00F5, 0xFD04, 0x024A, 0x0CE2, 0xF606, 0x03D3, 0xFF46, 0x071C, 0xE164,
    0x01FD, 0xF3CE, 0x021C, 0xFE78, 0xFEAA, 0x38E8, 0x6FF0, 0xF1C2, 0x019E,
    0x0024, 0xFE12, 0x0210, 0x0D0E, 0xED58, 0x0643, 0x007F, 0x03B2, 0xDF80,
    0x1CB4, 0xF290, 0xFEAF, 0xFF98, 0x050A, 0x27D8, 0x63D0, 0xFF9E, 0xFD86,
    0x0099, 0xFE17, 0x02E3, 0x0741, 0xFD52, 0x00E8, 0xFE65, 0x03CD, 0xED74,
    0xF2F8, 0xF8EB, 0x030B, 0x01B2, 0xF59A, 0x4760, 0x6B20, 0xECB4, 0x03DF,
    0x01AA, 0xFBB7, 0x045E, 0x0BD6, 0xF3DE, 0x0575, 0xFF05, 0x05E6, 0xE174,
    0x0619, 0xF2F4, 0x0295, 0xFECB, 0x032D, 0x2A88, 0x78E0, 0xF20A, 0xFFAF,
    0x0019, 0xFD6D, 0x0608, 0x0B3E, 0xEA00, 0x0916, 0x0106, 0x01B3, 0xDBE0,
    0x2548, 0xF41E, 0xFB05, 0xFFD6, 0x074F, 0x1F44, 0x64C0, 0x01E6, 0xFE13,
    0x0325, 0xFC9A, 0x03F2, 0x08EC, 0xFE7A, 0x018D, 0xFD47, 0x0379, 0xEE1C,
    0xEBD8, 0xFC3B, 0x0305, 0x0476, 0xF2E2, 0x48A0, 0x6F00, 0xE3E8, 0x0682,
    0x025E, 0xFA40, 0x0615, 0x0711, 0xF300, 0x05F7, 0xFFA6, 0x02EC, 0xE898,
    0x0610, 0xF614, 0x0620, 0xFEB9, 0x0427, 0x1480, 0x8920, 0xEEEC, 0x0076,
    0x0077, 0xFC83, 0x0A36, 0x0342, 0xE818, 0x0B48, 0x00EC, 0xFF5C, 0xE320,
    0x3438, 0xF762, 0xF9A7, 0x0039, 0x074C, 0x0830, 0x6960, 0x01EA, 0xFE89,
    0x0052, 0xFEED, 0x003C, 0x00C5, 0xFE88, 0x0065, 0xFF82, 0x0320, 0x029E,
    0x0482, 0x02ED, 0xFF89, 0xFFFE, 0x014A, 0x34C0, 0x3DF0, 0x0062, 0x0038,
    0x0054, 0xFDD1, 0x0097, 0x076E, 0xFB28, 0x0061, 0x0006, 0x02B0, 0x0190,
    0x1B34, 0x002F, 0xFF28, 0x005F, 0x0463, 0x1CF8, 0x39A8, 0x044D, 0xFFCA,
    0x000B, 0xFEFD, 0xFD33, 0x1E64, 0xF945, 0xFFFD, 0x001C, 0x017E, 0xFFF7,
    0x2AA0, 0x01DB, 0xFE47, 0x00E7, 0x0264, 0x110C, 0x2328, 0x075F, 0x00F0,
    0x0015, 0xFF58, 0x0137, 0x013E, 0xFF7A, 0x001D, 0xFF85, 0x01F3, 0xFB84,
    0xFBD5, 0x01E7, 0xFF9A, 0x00D3, 0xFAD7, 0x4430, 0x4910, 0xFA6C, 0x00E9,
    0x0015, 0xFE27, 0x0054, 0x01EC, 0xFDA5, 0x0023, 0xFFD4, 0x01ED, 0x01EE,
    0x06E7, 0x01DE, 0xFF49, 0x0021, 0xFDCC, 0x3638, 0x43D0, 0xFDCF, 0x0044,
    0x0015, 0xFC89, 0xFE15, 0x0E36, 0xF9E2, 0x000E, 0xFFA8, 0x02F3, 0x05B2,
    0x1798, 0x0197, 0xFE35, 0x004C, 0x0348, 0x2538, 0x30B8, 0x03E2, 0x0016,
    0x001C, 0xFEFD, 0x01EF, 0x01CC, 0xFF64, 0x0011, 0xFF41, 0x016F, 0xF724,
    0xF7E4, 0x0062, 0xFFB8, 0x014E, 0xF78E, 0x4C70, 0x5020, 0xF750, 0x011F,
    0x000F, 0xFE62, 0x0125, 0x0209, 0xFEBE, 0x0012, 0xFFA5, 0x0254, 0xF93F,
    0xFD12, 0xFF9D, 0xFFC4, 0x0093, 0xF829, 0x45B0, 0x5090, 0xF7CC, 0x011C,
    0xFFFD, 0xFD06, 0xFDC1, 0x0482, 0xFC84, 0x0032, 0x0093, 0x0217, 0x0103,
    0x0BB6, 0xFDDF, 0xFE9B, 0xFF91, 0xFC0F, 0x3730, 0x46E0, 0xFD5D, 0x0111,
    0x003F, 0xFF13, 0x0297, 0x031C, 0xFF40, 0x0025, 0xFF41, 0x00DB, 0xF314,
    0xF45A, 0xFED7, 0x0014, 0x023A, 0xF400, 0x52A0, 0x5680, 0xF3D0, 0x0204,
    0x0029, 0xFEF8, 0x0075, 0x043B, 0xFE5C, 0xFFEE, 0xFF31, 0x02C0, 0xF426,
    0xF9FE, 0xFD03, 0x00C0, 0x0145, 0xF5CC, 0x4BE0, 0x5620, 0xF5B8, 0x0140,
    0xFFEA, 0xFDD7, 0xFCED, 0x06F2, 0xFD9A, 0x0015, 0x0078, 0x058A, 0xF895,
    0x01F8, 0xF95F, 0xFF74, 0xFF1E, 0xF5A6, 0x4050, 0x54E0, 0xFA7C, 0x02DA,
    0x002F, 0xFF75, 0x02B8, 0x0472, 0xFF16, 0x002C, 0xFF38, 0x01B1, 0xEFD8,
    0xF184, 0xFF48, 0x0012, 0x02B6, 0xF1CC, 0x5540, 0x5AD0, 0xF0A6, 0x0319,
    0x0033, 0xFFD7, 0xFF3D, 0x0775, 0xFCDF, 0xFFEF, 0xFED6, 0x03BE, 0xEE88,
    0xF93E, 0xFB9B, 0x01A6, 0x018F, 0xF556, 0x4E50, 0x5B10, 0xF294, 0x01F8,
    0x002B, 0x00CF, 0xF7C4, 0x1040, 0xF7CE, 0xFFA1, 0xFF12, 0x06B0, 0xEDF8,
    0x03E1, 0xF82D, 0x025D, 0xFF70, 0xF9D5, 0x4300, 0x58C0, 0xF6E6, 0x0189,
    0xFFEB, 0xFF94, 0x021E, 0x0525, 0xFEDB, 0xFFFB, 0xFF4E, 0x032F, 0xEE88,
    0xF13A, 0xFF63, 0x0079, 0x0271, 0xF13E, 0x5480, 0x5D70, 0xEF28, 0x038A,
    0x003F, 0xFF8B, 0xFF1F, 0x09D0, 0xFB34, 0x009E, 0xFEAF, 0x0620, 0xE90C,
    0xFA7B, 0xFA14, 0x01C4, 0x00C9, 0xF68A, 0x4BC0, 0x60A0, 0xF0E4, 0x02AF,
    0x0063, 0x0124, 0xF458, 0x1A08, 0xEF7C, 0x0247, 0xFEC7, 0x08E6, 0xE3DC,
    0x0A58, 0xF728, 0x0147, 0xFF2E, 0xFEDB, 0x3DC0, 0x5A60, 0xFA61, 0xFF86,
    0x0076, 0xFE7D, 0x0350, 0x0728, 0xFD3B, 0x00D6, 0xFEEF, 0x02DE, 0xEC80,
    0xF030, 0xFD7D, 0x00B8, 0x02BC, 0xF18C, 0x5360, 0x6230, 0xED78, 0x0478,
    0x0075, 0xFE9F, 0x012C, 0x0B50, 0xF84D, 0x028D, 0xFEC2, 0x0749, 0xE2A4,
    0xFE21, 0xF81A, 0x0158, 0xFF7E, 0xFA76, 0x4520, 0x6760, 0xEFC4, 0x031C,
    0x0096, 0xFFF8, 0xF73C, 0x1E04, 0xE724, 0x0683, 0xFF1A, 0x08B0, 0xDA08,
    0x15A0, 0xF8D5, 0xFD2D, 0xFF30, 0x03B9, 0x3388, 0x5AA0, 0xFFC4, 0xFE45,
    0x003B, 0xFE61, 0x033B, 0x070A, 0xFCE6, 0x0120, 0xFF27, 0x0281, 0xED78,
    0xF252, 0xFB24, 0x01DA, 0x0207, 0xF468, 0x4D40, 0x6540, 0xEDC4, 0x03F2,
    0x0105, 0xFD29, 0x03CD, 0x09A0, 0xF6B0, 0x0467, 0xFDFA, 0x07E8, 0xE00C,
    0x02E1, 0xF68E, 0x01FA, 0xFF3A, 0xFE77, 0x3B40, 0x6E70, 0xEE4C, 0x0251,
    0x00D3, 0xFEB9, 0xFDA7, 0x1BE8, 0xE414, 0x0A4C, 0xFF6B, 0x0782, 0xD100,
    0x1C40, 0xFA5A, 0xF9CD, 0xFEB5, 0x0820, 0x2A28, 0x61C0, 0xFF02, 0xFE76,
    0x023A, 0xFBBD, 0x053F, 0x08A0, 0xFDC5, 0x00F5, 0xFE8E, 0x04D0, 0xEB6C,
    0xEDD4, 0xFDD5, 0x02A3, 0x0424, 0xEFBC, 0x50C0, 0x6780, 0xE578, 0x06C1,
    0x02CC, 0xFA05, 0x08CA, 0x0225, 0xF5DC, 0x05BB, 0xFD3D, 0x050E, 0xE29C,
    0x0A4A, 0xF7C4, 0x05BC, 0x0231, 0xFD24, 0x2C80, 0x7740, 0xEA7C, 0x0269,
    0x016B, 0xFAB1, 0x0978, 0x0A6C, 0xE690, 0x0E38, 0xFF54, 0x0721, 0xC960,
    0x36B0, 0xFA8F, 0xF86D, 0xFDAD, 0x0CB8, 0x0EEA, 0x6E20, 0xFB29, 0xFF22,
    0x0059, 0xFEC6, 0x006D, 0x00C1, 0xFE90, 0x005F, 0xFF7D, 0x02F8, 0x035C,
    0x040D, 0x02F9, 0xFF86, 0x0005, 0x0128, 0x37B0, 0x3A90, 0x00BC, 0x0039,
    0x003A, 0xFDF7, 0x029B, 0x05FC, 0xFC9B, 0x0039, 0xFF91, 0x0331, 0x04FD,
    0x0E6A, 0x024F, 0xFF57, 0x003F, 0x045A, 0x2770, 0x3410, 0x0444, 0x0038,
    0x0023, 0xFD50, 0xFE11, 0x2528, 0xFE88, 0xFFFB, 0x009C, 0xFDBD, 0xFE3F,
    0x2690, 0xFC1F, 0xFE63, 0x0135, 0x0A08, 0x0B22, 0x1E28, 0x0DE6, 0x00BE,
    0x0018, 0xFF50, 0x0143, 0x014A, 0xFF64, 0x0019, 0xFF8F, 0x01EC, 0xFBCA,
    0xFBEB, 0x01D6, 0xFF9C, 0x00DA, 0xFACB, 0x4590, 0x4730, 0xFAA4, 0x00DC,
    0x0012, 0xFDC7, 0x0152, 0x01F4, 0xFDB1, 0x0015, 0xFFC3, 0x014F, 0x0405,
    0x05E1, 0x0134, 0xFF99, 0x003E, 0xFE60, 0x39E0, 0x3E28, 0xFE6B, 0x0040,
    0x0006, 0xFBE7, 0x0493, 0x0D42, 0xFB03, 0x0003, 0xFFA3, 0xFFDC, 0x06C7,
    0x0DDC, 0xFFF2, 0xFF2A, 0x007D, 0x04E0, 0x2A80, 0x2E60, 0x0533, 0x0088,
    0x0019, 0xFF02, 0x01F9, 0x01DF, 0xFF2B, 0x0014, 0xFF69, 0x0114, 0xF794,
    0xF7D2, 0x00BE, 0xFF90, 0x0138, 0xF78A, 0x4D80, 0x4EC0, 0xF776, 0x0127,
    0x000A, 0xFE32, 0x01A7, 0x0225, 0xFE50, 0x000B, 0xFFBA, 0x0133, 0xFB4F,
    0xFCBB, 0x003D, 0xFFC3, 0x00B6, 0xF89D, 0x4830, 0x4BC0, 0xF86D, 0x00E8,
    0x0003, 0xFC54, 0x0124, 0x049E, 0xFBD3, 0x0005, 0x001D, 0xFF44, 0x05A7,
    0x09F8, 0xFDAC, 0xFFA9, 0x0042, 0xFDDE, 0x39F8, 0x3F08, 0xFE23, 0x0075,
    0x002F, 0xFF3B, 0x02B7, 0x02F4, 0xFF35, 0x002B, 0xFF86, 0x0021, 0xF392,
    0xF422, 0xFF63, 0xFFD1, 0x021B, 0xF40C, 0x53C0, 0x5500, 0xF410, 0x020B,
    0x0010, 0xFEA7, 0x0183, 0x0354, 0xFE3D, 0xFFFD, 0xFFB3, 0x00A4, 0xF71E,
    0xF952, 0xFEBB, 0x002B, 0x0119, 0xF6A2, 0x4DF0, 0x5130, 0xF690, 0x011F,
    0xFFF4, 0xFD84, 0x0067, 0x05A0, 0xFBEC, 0xFFF0, 0x001D, 0xFFC6, 0xFE1C,
    0x020F, 0xFD82, 0xFFF9, 0x0099, 0xF9FE, 0x4400, 0x4960, 0xFA23, 0x00FF,
    0x0021, 0xFFA3, 0x0303, 0x03BF, 0xFF79, 0x0010, 0xFF77, 0x00ED, 0xF09C,
    0xF128, 0x0042, 0xFFE4, 0x02C2, 0xF1D0, 0x56B0, 0x5880, 0xF12A, 0x02AC,
    0xFFFD, 0xFF93, 0x00FB, 0x04E2, 0xFE29, 0xFFEB, 0xFF9D, 0x00D1, 0xF2E6,
    0xF6D6, 0xFDE7, 0x0090, 0x01B2, 0xF4E4, 0x51B0, 0x55A0, 0xF436, 0x01BE,
    0xFFF0, 0xFF78, 0xFBAB, 0x0C3E, 0xF94C, 0xFFC9, 0xFFEE, 0x013F, 0xF79C,
    0x00DC, 0xFC09, 0x0076, 0x00AC, 0xF9FB, 0x4720, 0x4D10, 0xF989, 0x0116,
    0xFEF4, 0x0139, 0x006A, 0x01DF, 0x00D0, 0xFEE5, 0xFFFD, 0x049E, 0xF150,
    0xF1F2, 0x03A0, 0x0070, 0x017A, 0xF15C, 0x54F0, 0x57E0, 0xF070, 0x01D4,
    0xFFC1, 0xFFEB, 0x0031, 0x0584, 0xFDE1, 0xFFCB, 0xFFA1, 0x0331, 0xEFC4,
    0xF67A, 0xFECC, 0x00CE, 0x0173, 0xF43C, 0x5190, 0x58F0, 0xF21C, 0x0206,
    0xFFF8, 0x018E, 0xF3AE, 0x1754, 0xF41C, 0x002B, 0xFFBD, 0x04B6, 0xEEA4,
    0x0411, 0xF9CE, 0x008A, 0x0073, 0xFB30, 0x46D0, 0x5070, 0xF9A8, 0x0132,
    0xFFFE, 0xFF0A, 0x03A3, 0x0568, 0xFE50, 0x0033, 0xFFA7, 0x01CE, 0xEDD8,
    0xEF54, 0xFFE1, 0x0050, 0x02F4, 0xF09A, 0x5790, 0x5CD0, 0xEF18, 0x0386,
    0xFFD6, 0xFF7E, 0x01C6, 0x0718, 0xFC9B, 0x0089, 0xFF93, 0x02E8, 0xEB30,
    0xF728, 0xFC93, 0x00C5, 0x0157, 0xF5EC, 0x5070, 0x5C90, 0xF1B0, 0x0290,
    0x0027, 0x02F9, 0xEDA4, 0x22F0, 0xEBC0, 0x02CF, 0xFF63, 0x0914, 0xE06C,
    0x0D3C, 0xF82A, 0xFF22, 0xFFF9, 0xFF1C, 0x4280, 0x53D0, 0xFA3D, 0x00B4,
    0x0050, 0xFE8E, 0x03CE, 0x05C5, 0xFDA1, 0x00DB, 0xFFC6, 0x0042, 0xEEE8,
    0xF0AC, 0xFDAF, 0x00C0, 0x02BD, 0xF2AA, 0x5500, 0x5D40, 0xF000, 0x0360,
    0x007C, 0xFE08, 0x0383, 0x0717, 0xFA95, 0x0259, 0xFF14, 0x02D2, 0xE938,
    0xFA1F, 0xFA7B, 0x00FB, 0x0113, 0xF8B2, 0x4C70, 0x5F70, 0xF118, 0x0286,
    0x0050, 0x0368, 0xEF54, 0x2530, 0xE6E4, 0x0731, 0xFE71, 0x0BC4, 0xD330,
    0x151C, 0xF554, 0xFDCB, 0xFF5B, 0x0396, 0x3BC0, 0x5CA0, 0xF8BE, 0x0007,
    0x022E, 0xFC0B, 0x05B4, 0x070E, 0xFD7C, 0x00BE, 0xFDF4, 0x053A, 0xEB74,
    0xECB0, 0x01B7, 0x00B5, 0x05DC, 0xEB3C, 0x5930, 0x5FE0, 0xE80C, 0x06D8,
    0x01E6, 0xFC69, 0x053A, 0x01B5, 0xFAB6, 0x03DF, 0x0007, 0xFFA7, 0xEE48,
    0x0535, 0xF7DA, 0x02C9, 0x03FA, 0xF342, 0x4580, 0x5E30, 0xEE18, 0x0565,
    0xFDE0, 0x0384, 0xF72A, 0x0FB0, 0xF178, 0x09D8, 0xFF24, 0x0998, 0xCBE8,
    0x3748, 0xE504, 0x0211, 0xFDBE, 0x0EA4, 0x1EBC, 0x6D50, 0xEFD8, 0x012A,
    0x005F, 0xFE90, 0x00C1, 0x006D, 0xFEC6, 0x0059, 0xFF86, 0x02F9, 0x040D,
    0x035C, 0x02F8, 0xFF7D, 0x0039, 0x00BC, 0x3A90, 0x37B0, 0x0128, 0x0005,
    0x0039, 0xFC9B, 0x05FC, 0x029B, 0xFDF7, 0x003A, 0xFF57, 0x024F, 0x0E6A,
    0x04FD, 0x0331, 0xFF91, 0x0038, 0x0444, 0x3410, 0x2770, 0x045A, 0x003F,
    0xFFFB, 0xFE88, 0x2528, 0xFE11, 0xFD50, 0x0023, 0xFE63, 0xFC1F, 0x2690,
    0xFE3F, 0xFDBD, 0x009C, 0x00BE, 0x0DE6, 0x1E28, 0x0B22, 0x0A08, 0x0135,
    0x0019, 0xFF64, 0x014A, 0x0143, 0xFF50, 0x0018, 0xFF9C, 0x01D6, 0xFBEB,
    0xFBCA, 0x01EC, 0xFF8F, 0x00DC, 0xFAA4, 0x4730, 0x4590, 0xFACB, 0x00DA,
    0x0015, 0xFDB1, 0x01F4, 0x0152, 0xFDC7, 0x0012, 0xFF99, 0x0134, 0x05E1,
    0x0405, 0x014F, 0xFFC3, 0x0040, 0xFE6B, 0x3E28, 0x39E0, 0xFE60, 0x003E,
    0x0003, 0xFB03, 0x0D42, 0x0493, 0xFBE7, 0x0006, 0xFF2A, 0xFFF2, 0x0DDC,
    0x06C7, 0xFFDC, 0xFFA3, 0x0088, 0x0533, 0x2E60, 0x2A80, 0x04E0, 0x007D,
    0x0014, 0xFF2B, 0x01DF, 0x01F9, 0xFF02, 0x0019, 0xFF90, 0x00BE, 0xF7D2,
    0xF794, 0x0114, 0xFF69, 0x0127, 0xF776, 0x4EC0, 0x4D80, 0xF78A, 0x0138,
    0x000B, 0xFE50, 0x0225, 0x01A7, 0xFE32, 0x000A, 0xFFC3, 0x003D, 0xFCBB,
    0xFB4F, 0x0133, 0xFFBA, 0x00E8, 0xF86D, 0x4BC0, 0x4830, 0xF89D, 0x00B6,
    0x0005, 0xFBD3, 0x049E, 0x0124, 0xFC54, 0x0003, 0xFFA9, 0xFDAC, 0x09F8,
    0x05A7, 0xFF44, 0x001D, 0x0075, 0xFE23, 0x3F08, 0x39F8, 0xFDDE, 0x0042,
    0x002B, 0xFF35, 0x02F4, 0x02B7, 0xFF3B, 0x002F, 0xFFD1, 0xFF63, 0xF422,
    0xF392, 0x0021, 0xFF86, 0x020B, 0xF410, 0x5500, 0x53C0, 0xF40C, 0x021B,
    0xFFFD, 0xFE3D, 0x0354, 0x0183, 0xFEA7, 0x0010, 0x002B, 0xFEBB, 0xF952,
    0xF71E, 0x00A4, 0xFFB3, 0x011F, 0xF690, 0x5130, 0x4DF0, 0xF6A2, 0x0119,
    0xFFF0, 0xFBEC, 0x05A0, 0x0067, 0xFD84, 0xFFF4, 0xFFF9, 0xFD82, 0x020F,
    0xFE1C, 0xFFC6, 0x001D, 0x00FF, 0xFA23, 0x4960, 0x4400, 0xF9FE, 0x0099,
    0x0010, 0xFF79, 0x03BF, 0x0303, 0xFFA3, 0x0021, 0xFFE4, 0x0042, 0xF128,
    0xF09C, 0x00ED, 0xFF77, 0x02AC, 0xF12A, 0x5880, 0x56B0, 0xF1D0, 0x02C2,
    0xFFEB, 0xFE29, 0x04E2, 0x00FB, 0xFF93, 0xFFFD, 0x0090, 0xFDE7, 0xF6D6,
    0xF2E6, 0x00D1, 0xFF9D, 0x01BE, 0xF436, 0x55A0, 0x51B0, 0xF4E4, 0x01B2,
    0xFFC9, 0xF94C, 0x0C3E, 0xFBAB, 0xFF78, 0xFFF0, 0x0076, 0xFC09, 0x00DC,
    0xF79C, 0x013F, 0xFFEE, 0x0116, 0xF989, 0x4D10, 0x4720, 0xF9FB, 0x00AC,
    0xFEE5, 0x00D0, 0x01DF, 0x006A, 0x0139, 0xFEF4, 0x0070, 0x03A0, 0xF1F2,
    0xF150, 0x049E, 0xFFFD, 0x01D4, 0xF070, 0x57E0, 0x54F0, 0xF15C, 0x017A,
    0xFFCB, 0xFDE1, 0x0584, 0x0031, 0xFFEB, 0xFFC1, 0x00CE, 0xFECC, 0xF67A,
    0xEFC4, 0x0331, 0xFFA1, 0x0206, 0xF21C, 0x58F0, 0x5190, 0xF43C, 0x0173,
    0x002B, 0xF41C, 0x1754, 0xF3AE, 0x018E, 0xFFF8, 0x008A, 0xF9CE, 0x0411,
    0xEEA4, 0x04B6, 0xFFBD, 0x0132, 0xF9A8, 0x5070, 0x46D0, 0xFB30, 0x0073,
    0x0033, 0xFE50, 0x0568, 0x03A3, 0xFF0A, 0xFFFE, 0x0050, 0xFFE1, 0xEF54,
    0xEDD8, 0x01CE, 0xFFA7, 0x0386, 0xEF18, 0x5CD0, 0x5790, 0xF09A, 0x02F4,
    0x0089, 0xFC9B, 0x0718, 0x01C6, 0xFF7E, 0xFFD6, 0x00C5, 0xFC93, 0xF728,
    0xEB30, 0x02E8, 0xFF93, 0x0290, 0xF1B0, 0x5C90, 0x5070, 0xF5EC, 0x0157,
    0x02CF, 0xEBC0, 0x22F0, 0xEDA4, 0x02F9, 0x0027, 0xFF22, 0xF82A, 0x0D3C,
    0xE06C, 0x0914, 0xFF63, 0x00B4, 0xFA3D, 0x53D0, 0x4280, 0xFF1C, 0xFFF9,
    0x00DB, 0xFDA1, 0x05C5, 0x03CE, 0xFE8E, 0x0050, 0x00C0, 0xFDAF, 0xF0AC,
    0xEEE8, 0x0042, 0xFFC6, 0x0360, 0xF000, 0x5D40, 0x5500, 0xF2AA, 0x02BD,
    0x0259, 0xFA95, 0x0717, 0x0383, 0xFE08, 0x007C, 0x00FB, 0xFA7B, 0xFA1F,
    0xE938, 0x02D2, 0xFF14, 0x0286, 0xF118, 0x5F70, 0x4C70, 0xF8B2, 0x0113,
    0x0731, 0xE6E4, 0x2530, 0xEF54, 0x0368, 0x0050, 0xFDCB, 0xF554, 0x151C,
    0xD330, 0x0BC4, 0xFE71, 0x0007, 0xF8BE, 0x5CA0, 0x3BC0, 0x0396, 0xFF5B,
    0x00BE, 0xFD7C, 0x070E, 0x05B4, 0xFC0B, 0x022E, 0x00B5, 0x01B7, 0xECB0,
    0xEB74, 0x053A, 0xFDF4, 0x06D8, 0xE80C, 0x5FE0, 0x5930, 0xEB3C, 0x05DC,
    0x03DF, 0xFAB6, 0x01B5, 0x053A, 0xFC69, 0x01E6, 0x02C9, 0xF7DA, 0x0535,
    0xEE48, 0xFFA7, 0x0007, 0x0565, 0xEE18, 0x5E30, 0x4580, 0xF342, 0x03FA,
    0x09D8, 0xF178, 0x0FB0, 0xF72A, 0x0384, 0xFDE0, 0x0211, 0xE504, 0x3748,
    0xCBE8, 0x0998, 0xFF24, 0x012A, 0xEFD8, 0x6D50, 0x1EBC, 0x0EA4, 0xFDBE,
    0x0065, 0xFE88, 0x00C5, 0x003C, 0xFEED, 0x0052, 0xFF89, 0x02ED, 0x0482,
    0x029E, 0x0320, 0xFF82, 0x0038, 0x0062, 0x3DF0, 0x34C0, 0x014A, 0xFFFE,
    0x0061, 0xFB28, 0x076E, 0x0097, 0xFDD1, 0x0054, 0xFF28, 0x002F, 0x1B34,
    0x0190, 0x02B0, 0x0006, 0xFFCA, 0x044D, 0x39A8, 0x1CF8, 0x0463, 0x005F,
    0xFFFD, 0xF945, 0x1E64, 0xFD33, 0xFEFD, 0x000B, 0xFE47, 0x01DB, 0x2AA0,
    0xFFF7, 0x017E, 0x001C, 0x00F0, 0x075F, 0x2328, 0x110C, 0x0264, 0x00E7,
    0x001D, 0xFF7A, 0x013E, 0x0137, 0xFF58, 0x0015, 0xFF9A, 0x01E7, 0xFBD5,
    0xFB84, 0x01F3, 0xFF85, 0x00E9, 0xFA6C, 0x4910, 0x4430, 0xFAD7, 0x00D3,
    0x0023, 0xFDA5, 0x01EC, 0x0054, 0xFE27, 0x0015, 0xFF49, 0x01DE, 0x06E7,
    0x01EE, 0x01ED, 0xFFD4, 0x0044, 0xFDCF, 0x43D0, 0x3638, 0xFDCC, 0x0021,
    0x000E, 0xF9E2, 0x0E36, 0xFE15, 0xFC89, 0x0015, 0xFE35, 0x0197, 0x1798,
    0x05B2, 0x02F3, 0xFFA8, 0x0016, 0x03E2, 0x30B8, 0x2538, 0x0348, 0x004C,
    0x0011, 0xFF64, 0x01CC, 0x01EF, 0xFEFD, 0x001C, 0xFFB8, 0x0062, 0xF7E4,
    0xF724, 0x016F, 0xFF41, 0x011F, 0xF750, 0x5020, 0x4C70, 0xF78E, 0x014E,
    0x0012, 0xFEBE, 0x0209, 0x0125, 0xFE62, 0x000F, 0xFFC4, 0xFF9D, 0xFD12,
    0xF93F, 0x0254, 0xFFA5, 0x011C, 0xF7CC, 0x5090, 0x45B0, 0xF829, 0x0093,
    0x0032, 0xFC84, 0x0482, 0xFDC1, 0xFD06, 0xFFFD, 0xFE9B, 0xFDDF, 0x0BB6,
    0x0103, 0x0217, 0x0093, 0x0111, 0xFD5D, 0x46E0, 0x3730, 0xFC0F, 0xFF91,
    0x0025, 0xFF40, 0x031C, 0x0297, 0xFF13, 0x003F, 0x0014, 0xFED7, 0xF45A,
    0xF314, 0x00DB, 0xFF41, 0x0204, 0xF3D0, 0x5680, 0x52A0, 0xF400, 0x023A,
    0xFFEE, 0xFE5C, 0x043B, 0x0075, 0xFEF8, 0x0029, 0x00C0, 0xFD03, 0xF9FE,
    0xF426, 0x02C0, 0xFF31, 0x0140, 0xF5B8, 0x5620, 0x4BE0, 0xF5CC, 0x0145,
    0x0015, 0xFD9A, 0x06F2, 0xFCED, 0xFDD7, 0xFFEA, 0xFF74, 0xF95F, 0x01F8,
    0xF895, 0x058A, 0x0078, 0x02DA, 0xFA7C, 0x54E0, 0x4050, 0xF5A6, 0xFF1E,
    0x002C, 0xFF16, 0x0472, 0x02B8, 0xFF75, 0x002F, 0x0012, 0xFF48, 0xF184,
    0xEFD8, 0x01B1, 0xFF38, 0x0319, 0xF0A6, 0x5AD0, 0x5540, 0xF1CC, 0x02B6,
    0xFFEF, 0xFCDF, 0x0775, 0xFF3D, 0xFFD7, 0x0033, 0x01A6, 0xFB9B, 0xF93E,
    0xEE88, 0x03BE, 0xFED6, 0x01F8, 0xF294, 0x5B10, 0x4E50, 0xF556, 0x018F,
    0xFFA1, 0xF7CE, 0x1040, 0xF7C4, 0x00CF, 0x002B, 0x025D, 0xF82D, 0x03E1,
    0xEDF8, 0x06B0, 0xFF12, 0x0189, 0xF6E6, 0x58C0, 0x4300, 0xF9D5, 0xFF70,
    0xFFFB, 0xFEDB, 0x0525, 0x021E, 0xFF94, 0xFFEB, 0x0079, 0xFF63, 0xF13A,
    0xEE88, 0x032F, 0xFF4E, 0x038A, 0xEF28, 0x5D70, 0x5480, 0xF13E, 0x0271,
    0x009E, 0xFB34, 0x09D0, 0xFF1F, 0xFF8B, 0x003F, 0x01C4, 0xFA14, 0xFA7B,
    0xE90C, 0x0620, 0xFEAF, 0x02AF, 0xF0E4, 0x60A0, 0x4BC0, 0xF68A, 0x00C9,
    0x0247, 0xEF7C, 0x1A08, 0xF458, 0x0124, 0x0063, 0x0147, 0xF728, 0x0A58,
    0xE3DC, 0x08E6, 0xFEC7, 0xFF86, 0xFA61, 0x5A60, 0x3DC0, 0xFEDB, 0xFF2E,
    0x00D6, 0xFD3B, 0x0728, 0x0350, 0xFE7D, 0x0076, 0x00B8, 0xFD7D, 0xF030,
    0xEC80, 0x02DE, 0xFEEF, 0x0478, 0xED78, 0x6230, 0x5360, 0xF18C, 0x02BC,
    0x028D, 0xF84D, 0x0B50, 0x012C, 0xFE9F, 0x0075, 0x0158, 0xF81A, 0xFE21,
    0xE2A4, 0x0749, 0xFEC2, 0x031C, 0xEFC4, 0x6760, 0x4520, 0xFA76, 0xFF7E,
    0x0683, 0xE724, 0x1E04, 0xF73C, 0xFFF8, 0x0096, 0xFD2D, 0xF8D5, 0x15A0,
    0xDA08, 0x08B0, 0xFF1A, 0xFE45, 0xFFC4, 0x5AA0, 0x3388, 0x03B9, 0xFF30,
    0x0120, 0xFCE6, 0x070A, 0x033B, 0xFE61, 0x003B, 0x01DA, 0xFB24, 0xF252,
    0xED78, 0x0281, 0xFF27, 0x03F2, 0xEDC4, 0x6540, 0x4D40, 0xF468, 0x0207,
    0x0467, 0xF6B0, 0x09A0, 0x03CD, 0xFD29, 0x0105, 0x01FA, 0xF68E, 0x02E1,
    0xE00C, 0x07E8, 0xFDFA, 0x0251, 0xEE4C, 0x6E70, 0x3B40, 0xFE77, 0xFF3A,
    0x0A4C, 0xE414, 0x1BE8, 0xFDA7, 0xFEB9, 0x00D3, 0xF9CD, 0xFA5A, 0x1C40,
    0xD100, 0x0782, 0xFF6B, 0xFE76, 0xFF02, 0x61C0, 0x2A28, 0x0820, 0xFEB5,
    0x00F5, 0xFDC5, 0x08A0, 0x053F, 0xFBBD, 0x023A, 0x02A3, 0xFDD5, 0xEDD4,
    0xEB6C, 0x04D0, 0xFE8E, 0x06C1, 0xE578, 0x6780, 0x50C0, 0xEFBC, 0x0424,
    0x05BB, 0xF5DC, 0x0225, 0x08CA, 0xFA05, 0x02CC, 0x05BC, 0xF7C4, 0x0A4A,
    0xE29C, 0x050E, 0xFD3D, 0x0269, 0xEA7C, 0x7740, 0x2C80, 0xFD24, 0x0231,
    0x0E38, 0xE690, 0x0A6C, 0x0978, 0xFAB1, 0x016B, 0xF86D, 0xFA8F, 0x36B0,
    0xC960, 0x0721, 0xFF54, 0xFF22, 0xFB29, 0x6E20, 0x0EEA, 0x0CB8, 0xFDAD,
    0x0070, 0xFEA6, 0x0087, 0x0038, 0xFF1F, 0x0053, 0xFF5E, 0x032F, 0x0450,
    0x021A, 0x030D, 0xFF7B, 0x002C, 0x0011, 0x41B0, 0x3200, 0x0152, 0xFFF8,
    0x0077, 0xFBB3, 0x022F, 0xFEBA, 0xFEA8, 0x0068, 0xFF54, 0xFFC9, 0x2188,
    0x01A5, 0x041C, 0xFFC4, 0xFF98, 0x01E4, 0x4370, 0x1510, 0x0394, 0x0026,
    0x0006, 0xFE35, 0x04B2, 0xFCD6, 0xFEFB, 0x0010, 0xFF57, 0xFF17, 0x3A68,
    0x00D9, 0x0637, 0x0015, 0xFF6F, 0x00A3, 0x3680, 0x0A5C, 0x0099, 0xFFAD,
    0x0021, 0xFF8B, 0x0127, 0x0133, 0xFF55, 0x0017, 0xFF9B, 0x0201, 0xFB8C,
    0xFB42, 0x01FB, 0xFF81, 0x00F4, 0xFA18, 0x4B00, 0x42E0, 0xFAD9, 0x00E2,
    0x0038, 0xFDC0, 0x0118, 0xFFA2, 0xFE86, 0x001A, 0xFEE3, 0x02EC, 0x06FE,
    0xFF9D, 0x02DB, 0xFFC3, 0x005E, 0xFCB7, 0x4AA0, 0x3300, 0xFCEF, 0x0005,
    0x0029, 0xFC66, 0x0430, 0xFC9E, 0xFD52, 0x002C, 0xFD88, 0x04BB, 0x2278,
    0x0229, 0x054E, 0xFFCB, 0xFF70, 0x00E9, 0x37A0, 0x21B8, 0xFF45, 0x0037,
    0x000C, 0xFFAE, 0x017A, 0x0209, 0xFEE3, 0x0023, 0xFFDE, 0x0022, 0xF7EE,
    0xF6D4, 0x01CE, 0xFF09, 0x010F, 0xF71A, 0x5180, 0x4B80, 0xF774, 0x0181,
    0x001A, 0xFF4C, 0x0160, 0x0143, 0xFE71, 0x001A, 0xFFC4, 0xFF71, 0xFC81,
    0xF732, 0x0355, 0xFF6E, 0x012D, 0xF702, 0x5570, 0x43E0, 0xF78A, 0x00C2,
    0x0059, 0xFD80, 0x0275, 0xFCF4, 0xFD8B, 0xFFFD, 0xFDAC, 0xFF90, 0x0CE6,
    0xFD4F, 0x0471, 0x00CE, 0x0183, 0xFBD5, 0x4EC0, 0x3318, 0xFA46, 0xFF11,
    0x001D, 0xFF5E, 0x031A, 0x028F, 0xFEEE, 0x0048, 0x005B, 0xFE6B, 0xF45C,
    0xF29C, 0x017A, 0xFF09, 0x01E7, 0xF38C, 0x5810, 0x51A0, 0xF3CA, 0x0271,
    0xFFE2, 0xFEE0, 0x03DF, 0x00D4, 0xFEC3, 0x0043, 0x016B, 0xFBC7, 0xF9C6,
    0xF1BC, 0x046D, 0xFED5, 0x013B, 0xF49C, 0x5B20, 0x4A30, 0xF4D6, 0x0190,
    0x0011, 0x0002, 0x05EF, 0xFD94, 0xFC9B, 0xFFF3, 0xFFB0, 0xF5FE, 0xFF5A,
    0xF558, 0x0A16, 0x00FC, 0x03E3, 0xFB7A, 0x5F90, 0x3BE0, 0xF1AC, 0xFDEA,
    0x001E, 0xFF12, 0x04A8, 0x02B5, 0xFF31, 0x003E, 0x005A, 0xFE8B, 0xF1BC,
    0xEF70, 0x0237, 0xFF18, 0x035F, 0xF022, 0x5CC0, 0x53E0, 0xF1E2, 0x029B,
    0x000A, 0xFCAD, 0x078F, 0xFFEF, 0xFF30, 0x006B, 0x02BF, 0xF979, 0xFA56,
    0xEBF8, 0x0577, 0xFE74, 0x01D8, 0xF162, 0x60A0, 0x4AA0, 0xF5E2, 0x015E,
    0xFFFD, 0xFAC4, 0x0A96, 0xFC5A, 0xFEFE, 0x0032, 0x043D, 0xF47A, 0x0294,
    0xECB0, 0x0896, 0xFF8C, 0x00F6, 0xF610, 0x63A0, 0x3D68, 0xF855, 0xFEA2,
    0x0075, 0xFE20, 0x0670, 0x0291, 0xFECF, 0x0052, 0x0090, 0xFD84, 0xF11E,
    0xED3C, 0x03A8, 0xFED3, 0x045A, 0xEE50, 0x6110, 0x52C0, 0xF14C, 0x0292,
    0x018F, 0xF9B7, 0x0AF8, 0x0040, 0xFE47, 0x0098, 0x0296, 0xF62C, 0xFD84,
    0xE600, 0x0754, 0xFEC4, 0x0274, 0xF112, 0x6770, 0x44A0, 0xF8F0, 0xFFC2,
    0x0315, 0xF36A, 0x0DC0, 0xFDD9, 0xFEF1, 0x0042, 0x02D5, 0xF334, 0x0DE8,
    0xE46C, 0x065F, 0xFFBC, 0xFE35, 0xF877, 0x63C0, 0x3608, 0x00AA, 0xFF17,
    0x00CE, 0xFD8C, 0x0756, 0x0325, 0xFE65, 0x0091, 0x0150, 0xFBBE, 0xF0B0,
    0xEC18, 0x03C2, 0xFE8C, 0x04DE, 0xEC7C, 0x6670, 0x4F80, 0xF26E, 0x0259,
    0x03D3, 0xF606, 0x0CE2, 0x024A, 0xFD04, 0x00F5, 0x021C, 0xF3CE, 0x01FD,
    0xE164, 0x071C, 0xFF46, 0x019E, 0xF1C2, 0x6FF0, 0x38E8, 0xFEAA, 0xFE78,
    0x0643, 0xED58, 0x0D0E, 0x0210, 0xFE12, 0x0024, 0xFEAF, 0xF290, 0x1CB4,
    0xDF80, 0x03B2, 0x007F, 0xFD86, 0xFF9E, 0x63D0, 0x27D8, 0x050A, 0xFF98,
    0x00E8, 0xFD52, 0x0741, 0x02E3, 0xFE17, 0x0099, 0x030B, 0xF8EB, 0xF2F8,
    0xED74, 0x03CD, 0xFE65, 0x03DF, 0xECB4, 0x6B20, 0x4760, 0xF59A, 0x01B2,
    0x0575, 0xF3DE, 0x0BD6, 0x045E, 0xFBB7, 0x01AA, 0x0295, 0xF2F4, 0x0619,
    0xE174, 0x05E6, 0xFF05, 0xFFAF, 0xF20A, 0x78E0, 0x2A88, 0x032D, 0xFECB,
    0x0916, 0xEA00, 0x0B3E, 0x0608, 0xFD6D, 0x0019, 0xFB05, 0xF41E, 0x2548,
    0xDBE0, 0x01B3, 0x0106, 0xFE13, 0x01E6, 0x64C0, 0x1F44, 0x074F, 0xFFD6,
    0x018D, 0xFE7A, 0x08EC, 0x03F2, 0xFC9A, 0x0325, 0x0305, 0xFC3B, 0xEBD8,
    0xEE1C, 0x0379, 0xFD47, 0x0682, 0xE3E8, 0x6F00, 0x48A0, 0xF2E2, 0x0476,
    0x05F7, 0xF300, 0x0711, 0x0615, 0xFA40, 0x025E, 0x0620, 0xF614, 0x0610,
    0xE898, 0x02EC, 0xFFA6, 0x0076, 0xEEEC, 0x8920, 0x1480, 0x0427, 0xFEB9,
    0x0B48, 0xE818, 0x0342, 0x0A36, 0xFC83, 0x0077, 0xF9A7, 0xF762, 0x3438,
    0xE320, 0xFF5C, 0x00EC, 0xFE89, 0x01EA, 0x6960, 0x0830, 0x074C, 0x0039,
    0x0086, 0xFEF0, 0x0022, 0x0009, 0xFF57, 0x004F, 0xFF38, 0x0398, 0x0396,
    0x01D0, 0x031E, 0xFF71, 0x0049, 0xFF99, 0x4550, 0x2FB8, 0x0142, 0xFFC2,
    0x0044, 0x0072, 0xFEE8, 0xFE7B, 0xFF21, 0x006C, 0xFF8E, 0x00B2, 0x1384,
    0x016B, 0x053F, 0xFF56, 0xFFA2, 0xFF02, 0x5240, 0x158C, 0x02AF, 0xFF77,
    0x0021, 0xFF62, 0x00A2, 0xFD00, 0xFFAA, 0x002B, 0xFED4, 0x0671, 0x1FE4,
    0xFEBE, 0x064A, 0xFF83, 0x005E, 0xFA56, 0x55B0, 0x0A7A, 0xFF01, 0xFF75,
    0x002B, 0xFF9B, 0x0104, 0x0134, 0xFF5B, 0x001B, 0xFF95, 0x0243, 0xFB1C,
    0xFB05, 0x020C, 0xFF6B, 0x00F9, 0xF9D5, 0x4CB0, 0x41E0, 0xFAD4, 0x00EF,
    0x0050, 0xFE0F, 0x008B, 0xFF7A, 0xFEDB, 0x001D, 0xFE90, 0x0464, 0x03C7,
    0xFDC4, 0x0380, 0xFFA9, 0x0093, 0xFB05, 0x51D0, 0x3138, 0xFC74, 0xFFEE,
    0x004B, 0xFF07, 0x02A3, 0xFB54, 0xFE16, 0x0037, 0xFCF1, 0x076E, 0x11E0,
    0xFFED, 0x07BF, 0xFFA7, 0xFFB7, 0xFCFE, 0x4970, 0x2420, 0xFD16, 0xFF80,
    0x000D, 0xFFEA, 0x0138, 0x021A, 0xFECA, 0x002D, 0xFFF6, 0x000A, 0xF7A6,
    0xF6B4, 0x0214, 0xFEDF, 0x00F6, 0xF700, 0x52C0, 0x4AB0, 0xF750, 0x01B6,
    0x0011, 0xFFC7, 0x0081, 0x01E8, 0xFE70, 0x002F, 0xFFEC, 0xFFF1, 0xFB14,
    0xF5DC, 0x03DD, 0xFF12, 0x0108, 0xF606, 0x5980, 0x4290, 0xF71E, 0x0130,
    0x0053, 0xFDCC, 0x0093, 0xFDD5, 0xFE4D, 0x0017, 0xFD49, 0x0414, 0x0814,
    0xFAC5, 0x0514, 0x002D, 0x00F0, 0xF8F0, 0x5680, 0x3168, 0xFA12, 0xFFBF,
    0x0011, 0xFF9D, 0x02DA, 0x02B1, 0xFEC0, 0x0059, 0x0083, 0xFE3C, 0xF442,
    0xF264, 0x01E4, 0xFED9, 0x01E4, 0xF354, 0x5940, 0x50F0, 0xF390, 0x029E,
    0xFFC1, 0xFFC6, 0x0270, 0x022C, 0xFE4B, 0x0065, 0x01E7, 0xFBB2, 0xF89D,
    0xF08A, 0x0528, 0xFE86, 0x00E4, 0xF380, 0x5EF0, 0x4930, 0xF41A, 0x022E,
    0xFF4A, 0x0020, 0x0289, 0x0015, 0xFD2C, 0x0049, 0x01AE, 0xFA9E, 0xFDD8,
    0xF2DC, 0x08D6, 0xFFB7, 0x00E5, 0xF69E, 0x63E0, 0x3BC0, 0xF35E, 0x0082,
    0x0018, 0xFF44, 0x048B, 0x02B6, 0xFF11, 0x004D, 0x0070, 0xFE33, 0xF180,
    0xEF80, 0x0283, 0xFEFB, 0x038D, 0xEFD4, 0x5E40, 0x52F0, 0xF1C6, 0x029D,
    0xFFC5, 0xFE86, 0x04FB, 0x01F1, 0xFE5B, 0x0093, 0x0341, 0xF8D0, 0xF8D8,
    0xEC28, 0x05D0, 0xFE7B, 0x01D5, 0xF00C, 0x65D0, 0x47A0, 0xF5E0, 0x0157,
    0xFEB5, 0xFF68, 0x0459, 0x000E, 0xFE3A, 0x0059, 0x05E0, 0xF544, 0xFE09,
    0xEDE0, 0x0892, 0xFF6B, 0x0019, 0xF242, 0x6C40, 0x3A50, 0xF782, 0xFF6F,
    0x0091, 0xFE5D, 0x0667, 0x02DA, 0xFE82, 0x0070, 0x009E, 0xFC79, 0xF0E6,
    0xED0C, 0x0425, 0xFE9B, 0x04CD, 0xEE04, 0x63A0, 0x50F0, 0xF132, 0x027B,
    0x011C, 0xFCA5, 0x0737, 0x0288, 0xFD90, 0x0086, 0x0398, 0xF34C, 0xFD1E,
    0xE7D8, 0x0692, 0xFF75, 0x0284, 0xF002, 0x6E40, 0x3E80, 0xFA29, 0xFF11,
    0x0073, 0xFD86, 0x0344, 0x01DD, 0xFE47, 0x003D, 0x06AC, 0xEE80, 0x0786,
    0xEA58, 0x05D5, 0x0019, 0xFDFE, 0xF3A0, 0x7260, 0x2F40, 0xFF33, 0xFF03,
    0x008F, 0xFE5D, 0x0702, 0x0327, 0xFE2F, 0x00A2, 0x01DF, 0xFA41, 0xF098,
    0xEC7C, 0x0482, 0xFE46, 0x04FA, 0xEC38, 0x69F0, 0x4C30, 0xF29E, 0x0235,
    0x02A9, 0xFAB6, 0x07ED, 0x03EE, 0xFCEC, 0x008F, 0x0447, 0xEE64, 0x0173,
    0xE740, 0x04AE, 0x0030, 0x0088, 0xF1E2, 0x7920, 0x2EA0, 0x008B, 0xFE62,
    0x02D1, 0xFBB7, 0xFF79, 0x0449, 0xFE5A, 0x0006, 0x0494, 0xE900, 0x146C,
    0xEAF0, 0x01BD, 0x009C, 0xFC5E, 0xF9B2, 0x75E0, 0x1FAC, 0x0468, 0x000B,
    0x0059, 0xFE9B, 0x068B, 0x0324, 0xFDAC, 0x00D8, 0x03F8, 0xF6FC, 0xF2B8,
    0xEE38, 0x0487, 0xFDEC, 0x03B0, 0xEC84, 0x6FB0, 0x42D0, 0xF640, 0x018D,
    0x042F, 0xF933, 0x06DC, 0x04D4, 0xFC70, 0x00BA, 0x045B, 0xEB64, 0x05FC,
    0xEA70, 0x0263, 0x004B, 0xFE60, 0xF4B6, 0x8220, 0x1DFC, 0x0492, 0xFF2E,
    0x0562, 0xF922, 0xFDE5, 0x058F, 0xFE82, 0xFFE0, 0x0150, 0xE850, 0x1BE8,
    0xEB7C, 0xFF47, 0x00EF, 0xFCB2, 0xFCD4, 0x7790, 0x15D4, 0x071E, 0x0067,
    0x017A, 0xFFFD, 0x07C8, 0x03A1, 0xFD49, 0x0310, 0x02E0, 0xFB15, 0xEAA0,
    0xF0F0, 0x0250, 0xFCAF, 0x067D, 0xE39C, 0x7530, 0x41C0, 0xF506, 0x043B,
    0x0467, 0xF906, 0x053B, 0x042F, 0xFBBD, 0x016B, 0x061E, 0xEA3C, 0x05B1,
    0xF304, 0xFF89, 0x008E, 0xFEE5, 0xF702, 0x8FC0, 0x087A, 0x0559, 0xFF5E,
    0x06EF, 0xF586, 0xFCF2, 0x0414, 0xFF7A, 0xFFF9, 0xFF81, 0xEA4C, 0x1F84,
    0xF7E6, 0xFD63, 0x003E, 0xFCE7, 0x0113, 0x82A0, 0xFCFF, 0x0527, 0x016C,
    0x0097, 0xFED2, 0x0016, 0xFFAF, 0xFF5F, 0x0057, 0xFF18, 0x0409, 0x01EB,
    0x01A4, 0x0335, 0xFF76, 0x001E, 0xFFC8, 0x4810, 0x2E98, 0x0163, 0xFFD3,
    0x0073, 0x00B5, 0xFE94, 0xFEC1, 0xFF35, 0x006F, 0xFECE, 0x04A5, 0x0868,
    0x016A, 0x050F, 0xFF6C, 0x0032, 0xFDA8, 0x5AC0, 0x1648, 0x025D, 0xFED8,
    0x0028, 0x0238, 0xFECA, 0xFC19, 0xFF82, 0x0033, 0xFFA5, 0x067B, 0x098A,
    0x01C5, 0x0771, 0xFFAC, 0xFEFB, 0xF848, 0x6840, 0x0AE6, 0x0191, 0xFE81,
    0x002E, 0xFF9E, 0x00F3, 0x0138, 0xFF57, 0x001D, 0xFF97, 0x028B, 0xFA76,
    0xFAD6, 0x0210, 0xFF65, 0x00F6, 0xF9A0, 0x4E40, 0x40F0, 0xFAD9, 0x010E,
    0x0075, 0xFE04, 0x0051, 0xFFD6, 0xFF18, 0x0022, 0xFE3B, 0x065B, 0xFF1F,
    0xFCDA, 0x037D, 0xFF7D, 0x00BC, 0xF9C1, 0x57E0, 0x2FD0, 0xFC78, 0xFFF3,
    0x0082, 0xFEC6, 0x00AE, 0xFC3D, 0xFE43, 0x0038, 0xFD36, 0x0A5E, 0x0324,
    0xFF13, 0x08F6, 0xFFAE, 0xFF30, 0xFB33, 0x5A90, 0x2248, 0xFD36, 0xFE7C,
    0x000A, 0x0010, 0x00EC, 0x0242, 0xFEBA, 0x002F, 0x0016, 0x0013, 0xF774,
    0xF692, 0x0243, 0xFEC4, 0x00D3, 0xF6F2, 0x53B0, 0x4A00, 0xF72C, 0x01F7,
    0x0002, 0x0043, 0xFFB7, 0x02B8, 0xFE4F, 0x0048, 0x0020, 0x00A0, 0xF8FC,
    0xF56C, 0x0414, 0xFEA8, 0x008F, 0xF58A, 0x5CA0, 0x4170, 0xF6D4, 0x01DF,
    0x006B, 0xFD1F, 0xFF95, 0xFF1C, 0xFEA4, 0x0030, 0xFCD0, 0x0928, 0x00A4,
    0xFA1D, 0x055C, 0xFF9F, 0x004C, 0xF782, 0x5DF0, 0x2F58, 0xF9EB, 0x003D,
    0x0018, 0xFFE2, 0x026F, 0x02EF, 0xFEA2, 0x0067, 0x006F, 0xFE4F, 0xF3D0,
    0xF28A, 0x0212, 0xFEA6, 0x01D6, 0xF336, 0x5A20, 0x5060, 0xF35E, 0x02DE,
    0xFF96, 0x00D6, 0x00D3, 0x0387, 0xFDDF, 0x008C, 0x01EA, 0xFC90, 0xF68C,
    0xF0AC, 0x052C, 0xFE3D, 0x008E, 0xF2EA, 0x6120, 0x48C0, 0xF38E, 0x02D7,
    0xFF0F, 0x006C, 0xFF5A, 0x0270, 0xFDAC, 0x0089, 0x0124, 0x005C, 0xFA7E,
    0xF2AE, 0x06C1, 0xFEBA, 0xFFD8, 0xF32E, 0x64F0, 0x3D40, 0xF4EE, 0x0237,
    0x0012, 0xFF91, 0x044D, 0x02EC, 0xFECF, 0x0062, 0x0058, 0xFE3C, 0xF0C2,
    0xEFC8, 0x02DA, 0xFED9, 0x03B2, 0xEFA8, 0x5FA0, 0x51F0, 0xF17C, 0x02B1,
    0xFF32, 0x00CC, 0x0284, 0x037C, 0xFDAF, 0x00C6, 0x0332, 0xF9C5, 0xF51C,
    0xEE78, 0x0589, 0xFE6A, 0x01D6, 0xEF40, 0x6970, 0x45C0, 0xF4FE, 0x01C6,
    0xFDDD, 0x027A, 0xFFE9, 0x0332, 0xFD89, 0x0092, 0x04C3, 0xF9D2, 0xF800,
    0xF06C, 0x06B0, 0xFF54, 0x00C2, 0xEEC8, 0x6F80, 0x3AC0, 0xF742, 0x005C,
    0x0095, 0xFED7, 0x0611, 0x0315, 0xFE2C, 0x00A1, 0x0041, 0xFC7A, 0xEFE0,
    0xED94, 0x04B7, 0xFE42, 0x0547, 0xEDC4, 0x6580, 0x4FC0, 0xF0A0, 0x0291,
    0xFF7D, 0x012A, 0x032A, 0x03A3, 0xFD5D, 0x009C, 0x044A, 0xF3DC, 0xF7D2,
    0xECEC, 0x05B0, 0xFF74, 0x02F8, 0xEE04, 0x73D0, 0x3B28, 0xF93E, 0xFF5E,
    0xFE08, 0x03F7, 0xFE98, 0x036F, 0xFE0F, 0x004A, 0x06BC, 0xF258, 0xFB53,
    0xF196, 0x040B, 0x0058, 0x0051, 0xEDB0, 0x7A50, 0x2E48, 0xFDE8, 0xFEBE,
    0x0037, 0xFF8D, 0x0658, 0x0350, 0xFDFB, 0x00C3, 0x01B2, 0xF9FE, 0xEF20,
    0xEDB4, 0x04B8, 0xFE17, 0x056D, 0xEBD8, 0x6CC0, 0x49D0, 0xF26C, 0x0232,
    0xFFFB, 0x0144, 0x033E, 0x03D7, 0xFD96, 0x0066, 0x062D, 0xEE2C, 0xF925,
    0xEFA8, 0x030A, 0x0026, 0x0143, 0xEE64, 0x8060, 0x2B40, 0xFF40, 0xFED1,
    0xFEDF, 0x043E, 0xFD13, 0x037B, 0xFEAF, 0x0015, 0x079F, 0xEC20, 0x002C,
    0xF4C8, 0x00ED, 0x0092, 0xFDF0, 0xF0EA, 0x82A0, 0x1FA4, 0x02AF, 0xFF8F,
    0xFFFA, 0x009A, 0x052F, 0x0356, 0xFD82, 0x00DC, 0x0385, 0xF614, 0xF110,
    0xF05E, 0x0474, 0xFDF5, 0x0426, 0xEC94, 0x7300, 0x3FC8, 0xF606, 0x018D,
    0x013F, 0x015E, 0x0212, 0x0375, 0xFDA5, 0x005E, 0x06DB, 0xE91C, 0xFC67,
    0xF3EE, 0x012B, 0x003F, 0xFF18, 0xF18A, 0x8940, 0x1C24, 0x029D, 0xFF77,
    0x00BC, 0x0254, 0xFDA9, 0x02F6, 0xFF2E, 0xFFF6, 0x06AF, 0xE91C, 0x0381,
    0xF690, 0xFF64, 0x0085, 0xFC95, 0xF45C, 0x88A0, 0x1430, 0x0556, 0x0047,
    0x00E1, 0x0241, 0x054A, 0x051F, 0xFD07, 0x027F, 0x02E4, 0xFAC6, 0xE9B4,
    0xF2A2, 0x010C, 0xFCC0, 0x05D8, 0xE400, 0x78A0, 0x3E08, 0xF63E, 0x0467,
    0x01EC, 0x0294, 0x00F1, 0x0307, 0xFD3A, 0x0083, 0x0697, 0xE6F8, 0xFE46,
    0xF950, 0xFF28, 0x009F, 0xFFF6, 0xF4CC, 0x9020, 0x0CC0, 0x037A, 0xFFC8,
    0x02F9, 0xFF7C, 0xFF07, 0x0107, 0xFFF4, 0xFFF0, 0x0441, 0xE6FC, 0x05C1,
    0xFCA4, 0xFF17, 0x000E, 0xFC96, 0xFB74, 0x9160, 0x0288, 0x0414, 0x00BC,
    0x00AA, 0xFED4, 0x0010, 0xFFCC, 0xFF5D, 0x0056, 0xFEF3, 0x0471, 0x00EA,
    0x017B, 0x0331, 0xFF64, 0x000E, 0x0020, 0x4970, 0x2D88, 0x019B, 0xFFD9,
    0x0109, 0xFEF7, 0xFED2, 0xFF5B, 0xFF57, 0x0067, 0xFE42, 0x0800, 0x0283,
    0x0159, 0x0466, 0xFF48, 0x000F, 0xFE6D, 0x5DD0, 0x16E0, 0x022D, 0xFEEF,
    0x00A3, 0xFF7C, 0xFFC7, 0xFEB8, 0xFFC5, 0x001D, 0xFF01, 0x09A6, 0x00D8,
    0xFF3B, 0x03A6, 0xFFE6, 0x003B, 0xFEC5, 0x6FE0, 0x069A, 0x011D, 0xFEA0,
    0x0037, 0xFF9D, 0x00F0, 0x012A, 0xFF5D, 0x001F, 0xFF99, 0x02CE, 0xF9EB,
    0xFACF, 0x0214, 0xFF60, 0x00FA, 0xF999, 0x4F30, 0x4050, 0xFAD6, 0x0116,
    0x00A9, 0xFDD4, 0x0063, 0x0014, 0xFF4D, 0x0026, 0xFDD5, 0x080E, 0xFB18,
    0xFCCA, 0x033A, 0xFF5F, 0x00AC, 0xF973, 0x5C40, 0x2E10, 0xFCB1, 0x0017,
    0x00EC, 0xFD42, 0xFF72, 0xFE49, 0xFF6D, 0x001C, 0xFCFA, 0x0E82, 0xFDCE,
    0xFF06, 0x057E, 0xFFA9, 0xFF73, 0xFB71, 0x66F0, 0x17B4, 0xFEF6, 0xFE94,
    0x0005, 0x003C, 0x00BF, 0x024D, 0xFEAB, 0x0035, 0x0036, 0x0019, 0xF728,
    0xF6BC, 0x025A, 0xFEAF, 0x00C0, 0xF6E6, 0x5440, 0x4990, 0xF6FC, 0x022C,
    0xFFFE, 0x0080, 0xFF5F, 0x030F, 0xFE34, 0x005F, 0x005F, 0x0186, 0xF6A4,
    0xF614, 0x0412, 0xFE4E, 0xFFD5, 0xF566, 0x5F00, 0x3FF0, 0xF6B0, 0x02A5,
    0x00B5, 0xFCB3, 0xFFEA, 0xFFEF, 0xFF14, 0x0037, 0xFC93, 0x0BD0, 0xF97C,
    0xFAF7, 0x04A0, 0xFF57, 0x0040, 0xF724, 0x6680, 0x29C0, 0xFAE2, 0x0026,
    0x000B, 0x001D, 0x0214, 0x031E, 0xFE70, 0x007A, 0x0065, 0xFE72, 0xF37A,
    0xF2C0, 0x0259, 0xFE7A, 0x01DE, 0xF356, 0x5A90, 0x5000, 0xF316, 0x0306,
    0xFF82, 0x017D, 0xFFE8, 0x0420, 0xFD9B, 0x00B3, 0x01D2, 0xFDA0, 0xF440,
    0xF1D0, 0x052D, 0xFDD8, 0x0007, 0xF30A, 0x6250, 0x4840, 0xF2E4, 0x0397,
    0xFF50, 0x0037, 0xFF00, 0x0321, 0xFDAE, 0x00B3, 0x0020, 0x03F4, 0xF580,
    0xF4E8, 0x05D5, 0xFE49, 0xFFAE, 0xF354, 0x67C0, 0x3A88, 0xF576, 0x029B,
    0x0019, 0xFFBE, 0x0419, 0x0306, 0xFE8F, 0x0081, 0x0012, 0xFE8F, 0xF002,
    0xF02C, 0x0342, 0xFEAB, 0x03FD, 0xEF90, 0x6060, 0x51A0, 0xF0EA, 0x02C5,
    0xFF07, 0x01E1, 0x01A0, 0x03B9, 0xFD77, 0x00FF, 0x029E, 0xFB3D, 0xF184,
    0xF134, 0x054F, 0xFDF0, 0x019D, 0xEFAC, 0x6B70, 0x4460, 0xF3BC, 0x02A7,
    0xFEA8, 0x01E2, 0x003E, 0x0323, 0xFD68, 0x00D9, 0x01BE, 0xFFDF, 0xF0AA,
    0xF4A8, 0x0576, 0xFECD, 0x0194, 0xEE24, 0x7120, 0x39F8, 0xF680, 0x014D,
    0x0147, 0xFE00, 0x068C, 0x037D, 0xFD03, 0x014A, 0xFE74, 0xFF12, 0xEDA8,
    0xED44, 0x071B, 0xFD02, 0x065D, 0xECE0, 0x6690, 0x5040, 0xEE9C, 0x0330,
    0xFE59, 0x0310, 0x02E0, 0x0249, 0xFD77, 0x00FE, 0x03BC, 0xF728, 0xF1A2,
    0xF0FA, 0x072D, 0xFE6B, 0x03BE, 0xEDA4, 0x75C0, 0x3AF8, 0xF5B0, 0x0018,
    0xFE6E, 0x02D3, 0x00F9, 0x01F7, 0xFE3F, 0x0081, 0x02AC, 0xFC83, 0xEEEC,
    0xF75A, 0x0397, 0xFFDD, 0x0341, 0xEA40, 0x7CB0, 0x2F90, 0xFB5A, 0xFF09,
    0x0102, 0xFF0D, 0x069F, 0x03AA, 0xFCEE, 0x015F, 0xFF8D, 0xFC60, 0xEC84,
    0xEE24, 0x0697, 0xFD01, 0x06AF, 0xEAF4, 0x6E20, 0x4A40, 0xF032, 0x02F8,
    0xFE29, 0x0420, 0x0338, 0x01EE, 0xFDDE, 0x00D9, 0x05BB, 0xF198, 0xF07C,
    0xF536, 0x0431, 0xFF09, 0x0336, 0xEC54, 0x8380, 0x2C30, 0xFAFA, 0xFF63,
    0xFE16, 0x03D4, 0x00A3, 0x0197, 0xFEA7, 0x0054, 0x049E, 0xF73A, 0xF014,
    0xF9D4, 0x0201, 0x0044, 0x01EA, 0xEB2C, 0x85C0, 0x2468, 0xFEBD, 0xFED7,
    0xFFD8, 0x0219, 0x049D, 0x030B, 0xFDB1, 0x0093, 0x0273, 0xF5EA, 0xEEE0,
    0xF25E, 0x045C, 0xFE1F, 0x04E2, 0xECE0, 0x74A0, 0x3EF0, 0xF4DC, 0x01DF,
    0xFEF8, 0x053A, 0x01D0, 0x018C, 0xFE38, 0x00A1, 0x0710, 0xEBC0, 0xF276,
    0xF99A, 0x01DC, 0xFF78, 0x0140, 0xEEAC, 0x8CA0, 0x1EA8, 0xFE94, 0xFF92,
    0xFE89, 0x0410, 0x0074, 0x00FB, 0xFF20, 0x0044, 0x05AC, 0xF272, 0xF2AA,
    0xFBAF, 0x0117, 0x0030, 0x0030, 0xEE1C, 0x8C20, 0x1A20, 0x0105, 0xFF3B,
    0x0031, 0x0347, 0x03E8, 0x05B9, 0xFD30, 0x020A, 0x0376, 0xFB78, 0xE8DC,
    0xF302, 0xFFC7, 0xFD40, 0x04C0, 0xE5E0, 0x7890, 0x3E38, 0xF588, 0x04E8,
    0xFFE3, 0x0564, 0x017E, 0x01EE, 0xFE69, 0x0062, 0x0657, 0xECE4, 0xF40E,
    0xFAB7, 0x0020, 0xFFBD, 0x0180, 0xF060, 0x8FA0, 0x151C, 0x0039, 0xFFD8,
    0x0004, 0x0299, 0x00A5, 0x007B, 0xFF7B, 0x003A, 0x03F3, 0xEF4C, 0xF9C4,
    0xFD15, 0x00B2, 0xFFFC, 0xFFA7, 0xF5FE, 0x8F40, 0x0BAE, 0x01B4, 0xFF72,
    0x00A9, 0xFEED, 0x0011, 0xFFE5, 0xFF67, 0x0056, 0xFECE, 0x0473, 0x002E,
    0x0197, 0x031A, 0xFF61, 0x0014, 0x00F7, 0x4950, 0x2D88, 0x0178, 0xFFD9,
    0x0108, 0xFE45, 0x0012, 0xFEF1, 0xFF49, 0x0066, 0xFEFB, 0x0800, 0xFE79,
    0x0228, 0x045F, 0xFF58, 0xFED7, 0x0292, 0x5DB0, 0x16E4, 0x0156, 0xFF5B,
    0x00BC, 0xFEC0, 0x0072, 0xFE5E, 0xFFF5, 0x0015, 0xFEDA, 0x0AF8, 0xFEA8,
    0x011A, 0x03BD, 0xFFE1, 0xFFAD, 0x008A, 0x6FE0, 0x06A7, 0xFF2C, 0xFE90,
    0x0037, 0xFF99, 0x00FA, 0x0117, 0xFF60, 0x001F, 0xFF9D, 0x02CE, 0xF999,
    0xFAD6, 0x0214, 0xFF5D, 0x00F0, 0xF9EB, 0x4F30, 0x4050, 0xFACF, 0x012A,
    0x00A9, 0xFDD5, 0x00AC, 0x0017, 0xFF5F, 0x0026, 0xFDD4, 0x080E, 0xF972,
    0xFCB1, 0x033A, 0xFF4D, 0x0063, 0xFB18, 0x5C40, 0x2E10, 0xFCCA, 0x0014,
    0x00FD, 0xFCDE, 0xFF82, 0xFE89, 0xFFAD, 0x001A, 0xFD1C, 0x0ED8, 0xFB4A,
    0xFF03, 0x0579, 0xFF73, 0xFF79, 0xFDA5, 0x6720, 0x1798, 0xFF10, 0xFE43,
    0x0005, 0x0036, 0x00C0, 0x022C, 0xFEAF, 0x0035, 0x003C, 0x0019, 0xF6E6,
    0xF6FC, 0x025A, 0xFEAB, 0x00BF, 0xF728, 0x5440, 0x4990, 0xF6BC, 0x024D,
    0xFFFE, 0x005F, 0xFFD5, 0x02A5, 0xFE4E, 0x005F, 0x0080, 0x0186, 0xF566,
    0xF6B0, 0x0412, 0xFE34, 0xFF5F, 0xF6A4, 0x5F00, 0x3FF0, 0xF614, 0x030F,
    0x00B9, 0xFC8A, 0x0047, 0x0022, 0xFF58, 0x0036, 0xFCA9, 0x0BE2, 0xF718,
    0xFAE9, 0x049C, 0xFF16, 0xFFF1, 0xF970, 0x6690, 0x29B0, 0xFAFE, 0xFFEB,
    0x000B, 0x0065, 0x01DE, 0x0306, 0xFE7A, 0x007A, 0x001D, 0xFE72, 0xF356,
    0xF316, 0x0259, 0xFE70, 0x0214, 0xF37A, 0x5A90, 0x5000, 0xF2C0, 0x031E,
    0xFF82, 0x01D2, 0x0007, 0x0397, 0xFDD8, 0x00B3, 0x017D, 0xFDA0, 0xF30A,
    0xF2E4, 0x052D, 0xFD9B, 0xFFE8, 0xF440, 0x6250, 0x4840, 0xF1D0, 0x0420,
    0xFF51, 0x001D, 0xFFB1, 0x0298, 0xFE4A, 0x00B2, 0x0034, 0x03F8, 0xF350,
    0xF578, 0x05D3, 0xFDB1, 0xFF03, 0xF57C, 0x67D0, 0x3A80, 0xF4EC, 0x031E,
    0x0019, 0x0012, 0x03FD, 0x02C5, 0xFEAB, 0x0081, 0xFFBE, 0xFE8F, 0xEF90,
    0xF0EA, 0x0342, 0xFE8F, 0x0419, 0xF002, 0x6060, 0x51A0, 0xF02C, 0x0306,
    0xFF07, 0x029E, 0x019D, 0x02A7, 0xFDF0, 0x00FF, 0x01E1, 0xFB3D, 0xEFAC,
    0xF3BC, 0x054F, 0xFD77, 0x01A0, 0xF184, 0x6B70, 0x4460, 0xF134, 0x03B9,
    0xFEA9, 0x01BC, 0x0196, 0x014B, 0xFECE, 0x00D9, 0x01E1, 0xFFE1, 0xEE20,
    0xF682, 0x0574, 0xFD69, 0x0040, 0xF0A6, 0x7130, 0x39F8, 0xF4AA, 0x0321,
    0x0147, 0xFE74, 0x065D, 0x0330, 0xFD02, 0x014A, 0xFE00, 0xFF12, 0xECE0,
    0xEE9C, 0x071B, 0xFD03, 0x068C, 0xEDA8, 0x6690, 0x5040, 0xED44, 0x037D,
    0xFE59, 0x03BC, 0x03BE, 0x0018, 0xFE6B, 0x00FE, 0x0310, 0xF728, 0xEDA4,
    0xF5B0, 0x072D, 0xFD77, 0x02E0, 0xF1A2, 0x75C0, 0x3AF8, 0xF0FA, 0x0249,
    0xFE6F, 0x02A9, 0x0343, 0xFF09, 0xFFDD, 0x0080, 0x02D0, 0xFC86, 0xEA40,
    0xFB5B, 0x0396, 0xFE3F, 0x00FC, 0xEEE8, 0x7CB0, 0x2F90, 0xF75C, 0x01F5,
    0x0102, 0xFF8D, 0x06AF, 0x02F8, 0xFD01, 0x015F, 0xFF0D, 0xFC60, 0xEAF4,
    0xF032, 0x0697, 0xFCEE, 0x069F, 0xEC84, 0x6E20, 0x4A40, 0xEE24, 0x03AA,
    0xFE29, 0x05BB, 0x0336, 0xFF63, 0xFF09, 0x00D9, 0x0420, 0xF198, 0xEC54,
    0xFAFA, 0x0431, 0xFDDE, 0x0338, 0xF07C, 0x8380, 0x2C30, 0xF536, 0x01EE,
    0xFE17, 0x049E, 0x01EA, 0xFED7, 0x0044, 0x0054, 0x03D3, 0xF73A, 0xEB2C,
    0xFEBD, 0x0200, 0xFEA7, 0x00A4, 0xF014, 0x85C0, 0x2468, 0xF9D4, 0x0197,
    0xFFD8, 0x0273, 0x04E2, 0x01DF, 0xFE1F, 0x0093, 0x0219, 0xF5EA, 0xECE0,
    0xF4DC, 0x045C, 0xFDB1, 0x049D, 0xEEE0, 0x74A0, 0x3EF0, 0xF25E, 0x030B,
    0xFEF8, 0x0710, 0x0140, 0xFF92, 0xFF78, 0x00A1, 0x053A, 0xEBC0, 0xEEAC,
    0xFE94, 0x01DC, 0xFE38, 0x01D0, 0xF276, 0x8CA0, 0x1EA8, 0xF99A, 0x018C,
    0xFE89, 0x05AC, 0x0030, 0xFF3B, 0x0030, 0x0044, 0x0410, 0xF272, 0xEE1C,
    0x0105, 0x0117, 0xFF20, 0x0074, 0xF2A8, 0x8C20, 0x1A20, 0xFBAF, 0x00FB,
    0x0031, 0x0376, 0x04C0, 0x04E8, 0xFD40, 0x020A, 0x0347, 0xFB79, 0xE5E0,
    0xF588, 0xFFC7, 0xFD2F, 0x03E8, 0xE8DC, 0x7890, 0x3E38, 0xF302, 0x05B9,
    0xFFE3, 0x0657, 0x0180, 0xFFD8, 0xFFBD, 0x0062, 0x0564, 0xECE4, 0xF060,
    0x0039, 0x0020, 0xFE69, 0x017E, 0xF40E, 0x8FA0, 0x151C, 0xFAB7, 0x01EE,
    0x0005, 0x03F3, 0xFFA7, 0xFF72, 0xFFFC, 0x003A, 0x0299, 0xEF4C, 0xF5FE,
    0x01B4, 0x00B2, 0xFF7B, 0x00A5, 0xF9C4, 0x8F40, 0x0BAE, 0xFD15, 0x007B,
    0x0097, 0xFF18, 0x001E, 0xFFD3, 0xFF76, 0x0057, 0xFED2, 0x0409, 0xFFC8,
    0x0163, 0x0335, 0xFF5F, 0x0016, 0x01EB, 0x4810, 0x2E98, 0x01A4, 0xFFAF,
    0x0073, 0xFECE, 0x0032, 0xFED8, 0xFF6C, 0x006F, 0x00B5, 0x04A5, 0xFDA8,
    0x025D, 0x050F, 0xFF35, 0xFE94, 0x0868, 0x5AC0, 0x1648, 0x016A, 0xFEC1,
    0x0028, 0xFFA5, 0xFEFB, 0xFE81, 0xFFAC, 0x0033, 0x0238, 0x067B, 0xF848,
    0x0191, 0x0771, 0xFF82, 0xFECA, 0x098A, 0x6840, 0x0AE6, 0x01C5, 0xFC19,
    0x002E, 0xFF97, 0x00F6, 0x010E, 0xFF65, 0x001D, 0xFF9E, 0x028B, 0xF9A0,
    0xFAD9, 0x0210, 0xFF57, 0x00F3, 0xFA76, 0x4E40, 0x40F0, 0xFAD6, 0x0138,
    0x0075, 0xFE3B, 0x00BC, 0xFFF3, 0xFF7D, 0x0022, 0xFE04, 0x065B, 0xF9C1,
    0xFC78, 0x037D, 0xFF18, 0x0051, 0xFF1F, 0x57E0, 0x2FD0, 0xFCDA, 0xFFD6,
    0x0082, 0xFD36, 0xFF30, 0xFE7C, 0xFFAE, 0x0038, 0xFEC6, 0x0A5E, 0xFB33,
    0xFD36, 0x08F6, 0xFE43, 0x00AE, 0x0324, 0x5A90, 0x2248, 0xFF13, 0xFC3D,
    0x000A, 0x0016, 0x00D3, 0x01F7, 0xFEC4, 0x002F, 0x0010, 0x0013, 0xF6F2,
    0xF72C, 0x0243, 0xFEBA, 0x00EC, 0xF774, 0x53B0, 0x4A00, 0xF692, 0x0242,
    0x0002, 0x0020, 0x008F, 0x01DF, 0xFEA8, 0x0048, 0x0043, 0x00A0, 0xF58A,
    0xF6D4, 0x0414, 0xFE4F, 0xFFB7, 0xF8FC, 0x5CA0, 0x4170, 0xF56C, 0x02B8,
    0x006B, 0xFCD0, 0x004C, 0x003D, 0xFF9F, 0x0030, 0xFD1F, 0x0928, 0xF782,
    0xF9EB, 0x055C, 0xFEA4, 0xFF95, 0x00A4, 0x5DF0, 0x2F58, 0xFA1D, 0xFF1C,
    0x0018, 0x006F, 0x01D6, 0x02DE, 0xFEA6, 0x0067, 0xFFE2, 0xFE4F, 0xF336,
    0xF35E, 0x0212, 0xFEA2, 0x026F, 0xF3D0, 0x5A20, 0x5060, 0xF28A, 0x02EF,
    0xFF96, 0x01EA, 0x008E, 0x02D7, 0xFE3D, 0x008C, 0x00D6, 0xFC90, 0xF2EA,
    0xF38E, 0x052C, 0xFDDF, 0x00D3, 0xF68C, 0x6120, 0x48C0, 0xF0AC, 0x0387,
    0xFF0F, 0x0124, 0xFFD8, 0x0237, 0xFEBA, 0x0089, 0x006C, 0x005C, 0xF32E,
    0xF4EE, 0x06C1, 0xFDAC, 0xFF5A, 0xFA7E, 0x64F0, 0x3D40, 0xF2AE, 0x0270,
    0x0012, 0x0058, 0x03B2, 0x02B1, 0xFED9, 0x0062, 0xFF91, 0xFE3C, 0xEFA8,
    0xF17C, 0x02DA, 0xFECF, 0x044D, 0xF0C2, 0x5FA0, 0x51F0, 0xEFC8, 0x02EC,
    0xFF32, 0x0332, 0x01D6, 0x01C6, 0xFE6A, 0x00C6, 0x00CC, 0xF9C5, 0xEF40,
    0xF4FE, 0x0589, 0xFDAF, 0x0284, 0xF51C, 0x6970, 0x45C0, 0xEE78, 0x037C,
    0xFDDD, 0x04C3, 0x00C2, 0x005C, 0xFF54, 0x0092, 0x027A, 0xF9D2, 0xEEC8,
    0xF742, 0x06B0, 0xFD89, 0xFFE9, 0xF800, 0x6F80, 0x3AC0, 0xF06C, 0x0332,
    0x0095, 0x0041, 0x0547, 0x0291, 0xFE42, 0x00A1, 0xFED7, 0xFC7A, 0xEDC4,
    0xF0A0, 0x04B7, 0xFE2C, 0x0611, 0xEFE0, 0x6580, 0x4FC0, 0xED94, 0x0315,
    0xFF7D, 0x044A, 0x02F8, 0xFF5E, 0xFF74, 0x009C, 0x012A, 0xF3DC, 0xEE04,
    0xF93E, 0x05B0, 0xFD5D, 0x032A, 0xF7D2, 0x73D0, 0x3B28, 0xECEC, 0x03A3,
    0xFE08, 0x06BC, 0x0051, 0xFEBE, 0x0058, 0x004A, 0x03F7, 0xF258, 0xEDB0,
    0xFDE8, 0x040B, 0xFE0F, 0xFE98, 0xFB53, 0x7A50, 0x2E48, 0xF196, 0x036F,
    0x0037, 0x01B2, 0x056D, 0x0232, 0xFE17, 0x00C3, 0xFF8D, 0xF9FE, 0xEBD8,
    0xF26C, 0x04B8, 0xFDFB, 0x0658, 0xEF20, 0x6CC0, 0x49D0, 0xEDB4, 0x0350,
    0xFFFB, 0x062D, 0x0143, 0xFED1, 0x0026, 0x0066, 0x0144, 0xEE2C, 0xEE64,
    0xFF40, 0x030A, 0xFD96, 0x033E, 0xF925, 0x8060, 0x2B40, 0xEFA8, 0x03D7,
    0xFEDF, 0x079F, 0xFDF0, 0xFF8F, 0x0092, 0x0015, 0x043E, 0xEC20, 0xF0EA,
    0x02AF, 0x00ED, 0xFEAF, 0xFD13, 0x002C, 0x82A0, 0x1FA4, 0xF4C8, 0x037B,
    0xFFFA, 0x0385, 0x0426, 0x018D, 0xFDF5, 0x00DC, 0x009A, 0xF614, 0xEC94,
    0xF606, 0x0474, 0xFD82, 0x052F, 0xF110, 0x7300, 0x3FC8, 0xF05E, 0x0356,
    0x013F, 0x06DB, 0xFF18, 0xFF77, 0x003F, 0x005E, 0x015E, 0xE91C, 0xF18A,
    0x029D, 0x012B, 0xFDA5, 0x0212, 0xFC67, 0x8940, 0x1C24, 0xF3EE, 0x0375,
    0x00BC, 0x06AF, 0xFC95, 0x0047, 0x0085, 0xFFF6, 0x0254, 0xE91C, 0xF45C,
    0x0556, 0xFF64, 0xFF2E, 0xFDA9, 0x0381, 0x88A0, 0x1430, 0xF690, 0x02F6,
    0x00E1, 0x02E4, 0x05D8, 0x0467, 0xFCC0, 0x027F, 0x0241, 0xFAC6, 0xE400,
    0xF63E, 0x010C, 0xFD07, 0x054A, 0xE9B4, 0x78A0, 0x3E08, 0xF2A2, 0x051F,
    0x01EC, 0x0697, 0xFFF6, 0xFFC8, 0x009F, 0x0083, 0x0294, 0xE6F8, 0xF4CC,
    0x037A, 0xFF28, 0xFD3A, 0x00F1, 0xFE46, 0x9020, 0x0CC0, 0xF950, 0x0307,
    0x02F9, 0x0441, 0xFC96, 0x00BC, 0x000E, 0xFFF0, 0xFF7C, 0xE6FC, 0xFB74,
    0x0414, 0xFF17, 0xFFF4, 0xFF07, 0x05C1, 0x9160, 0x0288, 0xFCA4, 0x0107,
    0x0086, 0xFF38, 0x0049, 0xFFC2, 0xFF71, 0x004F, 0xFEF0, 0x0398, 0xFF99,
    0x0142, 0x031E, 0xFF57, 0x0022, 0x0396, 0x4550, 0x2FB8, 0x01D0, 0x0009,
    0x0044, 0xFF8E, 0xFFA2, 0xFF77, 0xFF56, 0x006C, 0x0072, 0x00B2, 0xFF02,
    0x02AF, 0x053F, 0xFF21, 0xFEE8, 0x1384, 0x5240, 0x158C, 0x016B, 0xFE7B,
    0x0021, 0xFED4, 0x005E, 0xFF75, 0xFF83, 0x002B, 0xFF62, 0x0671, 0xFA56,
    0xFF01, 0x064A, 0xFFAA, 0x00A2, 0x1FE4, 0x55B0, 0x0A7A, 0xFEBE, 0xFD00,
    0x002B, 0xFF95, 0x00F9, 0x00EF, 0xFF6B, 0x001B, 0xFF9B, 0x0243, 0xF9D5,
    0xFAD4, 0x020C, 0xFF5B, 0x0104, 0xFB1C, 0x4CB0, 0x41E0, 0xFB05, 0x0134,
    0x0050, 0xFE90, 0x0093, 0xFFEE, 0xFFA9, 0x001D, 0xFE0F, 0x0464, 0xFB05,
    0xFC74, 0x0380, 0xFEDB, 0x008B, 0x03C7, 0x51D0, 0x3138, 0xFDC4, 0xFF7A,
    0x004B, 0xFCF1, 0xFFB7, 0xFF80, 0xFFA7, 0x0037, 0xFF07, 0x076E, 0xFCFE,
    0xFD16, 0x07BF, 0xFE16, 0x02A3, 0x11E0, 0x4970, 0x2420, 0xFFED, 0xFB54,
    0x000D, 0xFFF6, 0x00F6, 0x01B6, 0xFEDF, 0x002D, 0xFFEA, 0x000A, 0xF700,
    0xF750, 0x0214, 0xFECA, 0x0138, 0xF7A6, 0x52C0, 0x4AB0, 0xF6B4, 0x021A,
    0x0011, 0xFFEC, 0x0108, 0x0130, 0xFF12, 0x002F, 0xFFC7, 0xFFF1, 0xF606,
    0xF71E, 0x03DD, 0xFE70, 0x0081, 0xFB14, 0x5980, 0x4290, 0xF5DC, 0x01E8,
    0x0053, 0xFD49, 0x00F0, 0xFFBF, 0x002D, 0x0017, 0xFDCC, 0x0414, 0xF8F0,
    0xFA12, 0x0514, 0xFE4D, 0x0093, 0x0814, 0x5680, 0x3168, 0xFAC5, 0xFDD5,
    0x0011, 0x0083, 0x01E4, 0x029E, 0xFED9, 0x0059, 0xFF9D, 0xFE3C, 0xF354,
    0xF390, 0x01E4, 0xFEC0, 0x02DA, 0xF442, 0x5940, 0x50F0, 0xF264, 0x02B1,
    0xFFC1, 0x01E7, 0x00E4, 0x022E, 0xFE86, 0x0065, 0xFFC6, 0xFBB2, 0xF380,
    0xF41A, 0x0528, 0xFE4B, 0x0270, 0xF89D, 0x5EF0, 0x4930, 0xF08A, 0x022C,
    0xFF4A, 0x01AE, 0x00E5, 0x0082, 0xFFB7, 0x0049, 0x0020, 0xFA9E, 0xF69E,
    0xF35E, 0x08D6, 0xFD2C, 0x0289, 0xFDD8, 0x63E0, 0x3BC0, 0xF2DC, 0x0015,
    0x0018, 0x0070, 0x038D, 0x029D, 0xFEFB, 0x004D, 0xFF44, 0xFE33, 0xEFD4,
    0xF1C6, 0x0283, 0xFF11, 0x048B, 0xF180, 0x5E40, 0x52F0, 0xEF80, 0x02B6,
    0xFFC5, 0x0341, 0x01D5, 0x0157, 0xFE7B, 0x0093, 0xFE86, 0xF8D0, 0xF00C,
    0xF5E0, 0x05D0, 0xFE5B, 0x04FB, 0xF8D8, 0x65D0, 0x47A0, 0xEC28, 0x01F1,
    0xFEB5, 0x05E0, 0x0019, 0xFF6F, 0xFF6B, 0x0059, 0xFF68, 0xF544, 0xF242,
    0xF782, 0x0892, 0xFE3A, 0x0459, 0xFE09, 0x6C40, 0x3A50, 0xEDE0, 0x000E,
    0x0091, 0x009E, 0x04CD, 0x027B, 0xFE9B, 0x0070, 0xFE5D, 0xFC79, 0xEE04,
    0xF132, 0x0425, 0xFE82, 0x0667, 0xF0E6, 0x63A0, 0x50F0, 0xED0C, 0x02DA,
    0x011C, 0x0398, 0x0284, 0xFF11, 0xFF75, 0x0086, 0xFCA5, 0xF34C, 0xF002,
    0xFA29, 0x0692, 0xFD90, 0x0737, 0xFD1E, 0x6E40, 0x3E80, 0xE7D8, 0x0288,
    0x0073, 0x06AC, 0xFDFE, 0xFF03, 0x0019, 0x003D, 0xFD86, 0xEE80, 0xF3A0,
    0xFF33, 0x05D5, 0xFE47, 0x0344, 0x0786, 0x7260, 0x2F40, 0xEA58, 0x01DD,
    0x008F, 0x01DF, 0x04FA, 0x0235, 0xFE46, 0x00A2, 0xFE5D, 0xFA41, 0xEC38,
    0xF29E, 0x0482, 0xFE2F, 0x0702, 0xF098, 0x69F0, 0x4C30, 0xEC7C, 0x0327,
    0x02A9, 0x0447, 0x0088, 0xFE62, 0x0030, 0x008F, 0xFAB6, 0xEE64, 0xF1E2,
    0x008B, 0x04AE, 0xFCEC, 0x07ED, 0x0173, 0x7920, 0x2EA0, 0xE740, 0x03EE,
    0x02D1, 0x0494, 0xFC5E, 0x000B, 0x009C, 0x0006, 0xFBB7, 0xE900, 0xF9B2,
    0x0468, 0x01BD, 0xFE5A, 0xFF79, 0x146C, 0x75E0, 0x1FAC, 0xEAF0, 0x0449,
    0x0059, 0x03F8, 0x03B0, 0x018D, 0xFDEC, 0x00D8, 0xFE9B, 0xF6FC, 0xEC84,
    0xF640, 0x0487, 0xFDAC, 0x068B, 0xF2B8, 0x6FB0, 0x42D0, 0xEE38, 0x0324,
    0x042F, 0x045B, 0xFE60, 0xFF2E, 0x004B, 0x00BA, 0xF933, 0xEB64, 0xF4B6,
    0x0492, 0x0263, 0xFC70, 0x06DC, 0x05FC, 0x8220, 0x1DFC, 0xEA70, 0x04D4,
    0x0562, 0x0150, 0xFCB2, 0x0067, 0x00EF, 0xFFE0, 0xF922, 0xE850, 0xFCD4,
    0x071E, 0xFF47, 0xFE82, 0xFDE5, 0x1BE8, 0x7790, 0x15D4, 0xEB7C, 0x058F,
    0x017A, 0x02E0, 0x067D, 0x043B, 0xFCAF, 0x0310, 0xFFFD, 0xFB15, 0xE39C,
    0xF506, 0x0250, 0xFD49, 0x07C8, 0xEAA0, 0x7530, 0x41C0, 0xF0F0, 0x03A1,
    0x0467, 0x061E, 0xFEE5, 0xFF5E, 0x008E, 0x016B, 0xF906, 0xEA3C, 0xF702,
    0x0559, 0xFF89, 0xFBBD, 0x053B, 0x05B1, 0x8FC0, 0x087A, 0xF304, 0x042F,
    0x06EF, 0xFF81, 0xFCE7, 0x016C, 0x003E, 0xFFF9, 0xF586, 0xEA4C, 0x0113,
    0x0527, 0xFD63, 0xFF7A, 0xFCF2, 0x1F84, 0x82A0, 0xFCFF, 0xF7E6, 0x0414,
    0x0070, 0xFF5E, 0x002C, 0xFFF8, 0xFF7B, 0x0053, 0xFEA6, 0x032F, 0x0011,
    0x0152, 0x030D, 0xFF1F, 0x0087, 0x0450, 0x41B0, 0x3200, 0x021A, 0x0038,
    0x0077, 0xFF54, 0xFF98, 0x0026, 0xFFC4, 0x0068, 0xFBB3, 0xFFC9, 0x01E4,
    0x0394, 0x041C, 0xFEA8, 0x022F, 0x2188, 0x4370, 0x1510, 0x01A5, 0xFEBA,
    0x0006, 0xFF57, 0xFF6F, 0xFFAD, 0x0015, 0x0010, 0xFE35, 0xFF17, 0x00A3,
    0x0099, 0x0637, 0xFEFB, 0x04B2, 0x3A68, 0x3680, 0x0A5C, 0x00D9, 0xFCD6,
    0x0021, 0xFF9B, 0x00F4, 0x00E2, 0xFF81, 0x0017, 0xFF8B, 0x0201, 0xFA18,
    0xFAD9, 0x01FB, 0xFF55, 0x0127, 0xFB8C, 0x4B00, 0x42E0, 0xFB42, 0x0133,
    0x0038, 0xFEE3, 0x005E, 0x0005, 0xFFC3, 0x001A, 0xFDC0, 0x02EC, 0xFCB7,
    0xFCEF, 0x02DB, 0xFE86, 0x0118, 0x06FE, 0x4AA0, 0x3300, 0xFF9D, 0xFFA2,
    0x0029, 0xFD88, 0xFF70, 0x0037, 0xFFCB, 0x002C, 0xFC66, 0x04BB, 0x00E9,
    0xFF45, 0x054E, 0xFD52, 0x0430, 0x2278, 0x37A0, 0x21B8, 0x0229, 0xFC9E,
    0x000C, 0xFFDE, 0x010F, 0x0181, 0xFF09, 0x0023, 0xFFAE, 0x0022, 0xF71A,
    0xF774, 0x01CE, 0xFEE3, 0x017A, 0xF7EE, 0x5180, 0x4B80, 0xF6D4, 0x0209,
    0x001A, 0xFFC4, 0x012D, 0x00C2, 0xFF6E, 0x001A, 0xFF4C, 0xFF71, 0xF702,
    0xF78A, 0x0355, 0xFE71, 0x0160, 0xFC81, 0x5570, 0x43E0, 0xF732, 0x0143,
    0x0059, 0xFDAC, 0x0183, 0xFF11, 0x00CE, 0xFFFD, 0xFD80, 0xFF90, 0xFBD5,
    0xFA46, 0x0471, 0xFD8B, 0x0275, 0x0CE6, 0x4EC0, 0x3318, 0xFD4F, 0xFCF4,
    0x001D, 0x005B, 0x01E7, 0x0271, 0xFF09, 0x0048, 0xFF5E, 0xFE6B, 0xF38C,
    0xF3CA, 0x017A, 0xFEEE, 0x031A, 0xF45C, 0x5810, 0x51A0, 0xF29C, 0x028F,
    0xFFE2, 0x016B, 0x013B, 0x0190, 0xFED5, 0x0043, 0xFEE0, 0xFBC7, 0xF49C,
    0xF4D6, 0x046D, 0xFEC3, 0x03DF, 0xF9C6, 0x5B20, 0x4A30, 0xF1BC, 0x00D4,
    0x0011, 0xFFB0, 0x03E3, 0xFDEA, 0x00FC, 0xFFF3, 0x0002, 0xF5FE, 0xFB7A,
    0xF1AC, 0x0A16, 0xFC9B, 0x05EF, 0xFF5A, 0x5F90, 0x3BE0, 0xF558, 0xFD94,
    0x001E, 0x005A, 0x035F, 0x029B, 0xFF18, 0x003E, 0xFF12, 0xFE8B, 0xF022,
    0xF1E2, 0x0237, 0xFF31, 0x04A8, 0xF1BC, 0x5CC0, 0x53E0, 0xEF70, 0x02B5,
    0x000A, 0x02BF, 0x01D8, 0x015E, 0xFE74, 0x006B, 0xFCAD, 0xF979, 0xF162,
    0xF5E2, 0x0577, 0xFF30, 0x078F, 0xFA56, 0x60A0, 0x4AA0, 0xEBF8, 0xFFEF,
    0xFFFD, 0x043D, 0x00F6, 0xFEA2, 0xFF8C, 0x0032, 0xFAC4, 0xF47A, 0xF610,
    0xF855, 0x0896, 0xFEFE, 0x0A96, 0x0294, 0x63A0, 0x3D68, 0xECB0, 0xFC5A,
    0x0075, 0x0090, 0x045A, 0x0292, 0xFED3, 0x0052, 0xFE20, 0xFD84, 0xEE50,
    0xF14C, 0x03A8, 0xFECF, 0x0670, 0xF11E, 0x6110, 0x52C0, 0xED3C, 0x0291,
    0x018F, 0x0296, 0x0274, 0xFFC2, 0xFEC4, 0x0098, 0xF9B7, 0xF62C, 0xF112,
    0xF8F0, 0x0754, 0xFE47, 0x0AF8, 0xFD84, 0x6770, 0x44A0, 0xE600, 0x0040,
    0x0315, 0x02D5, 0xFE35, 0xFF17, 0xFFBC, 0x0042, 0xF36A, 0xF334, 0xF877,
    0x00AA, 0x065F, 0xFEF1, 0x0DC0, 0x0DE8, 0x63C0, 0x3608, 0xE46C, 0xFDD9,
    0x00CE, 0x0150, 0x04DE, 0x0259, 0xFE8C, 0x0091, 0xFD8C, 0xFBBE, 0xEC7C,
    0xF26E, 0x03C2, 0xFE65, 0x0756, 0xF0B0, 0x6670, 0x4F80, 0xEC18, 0x0325,
    0x03D3, 0x021C, 0x019E, 0xFE78, 0xFF46, 0x00F5, 0xF606, 0xF3CE, 0xF1C2,
    0xFEAA, 0x071C, 0xFD04, 0x0CE2, 0x01FD, 0x6FF0, 0x38E8, 0xE164, 0x024A,
    0x0643, 0xFEAF, 0xFD86, 0xFF98, 0x007F, 0x0024, 0xED58, 0xF290, 0xFF9E,
    0x050A, 0x03B2, 0xFE12, 0x0D0E, 0x1CB4, 0x63D0, 0x27D8, 0xDF80, 0x0210,
    0x00E8, 0x030B, 0x03DF, 0x01B2, 0xFE65, 0x0099, 0xFD52, 0xF8EB, 0xECB4,
    0xF59A, 0x03CD, 0xFE17, 0x0741, 0xF2F8, 0x6B20, 0x4760, 0xED74, 0x02E3,
    0x0575, 0x0295, 0xFFAF, 0xFECB, 0xFF05, 0x01AA, 0xF3DE, 0xF2F4, 0xF20A,
    0x032D, 0x05E6, 0xFBB7, 0x0BD6, 0x0619, 0x78E0, 0x2A88, 0xE174, 0x045E,
    0x0916, 0xFB05, 0xFE13, 0xFFD6, 0x0106, 0x0019, 0xEA00, 0xF41E, 0x01E6,
    0x074F, 0x01B3, 0xFD6D, 0x0B3E, 0x2548, 0x64C0, 0x1F44, 0xDBE0, 0x0608,
    0x018D, 0x0305, 0x0682, 0x0476, 0xFD47, 0x0325, 0xFE7A, 0xFC3B, 0xE3E8,
    0xF2E2, 0x0379, 0xFC9A, 0x08EC, 0xEBD8, 0x6F00, 0x48A0, 0xEE1C, 0x03F2,
    0x05F7, 0x0620, 0x0076, 0xFEB9, 0xFFA6, 0x025E, 0xF300, 0xF614, 0xEEEC,
    0x0427, 0x02EC, 0xFA40, 0x0711, 0x0610, 0x8920, 0x1480, 0xE898, 0x0615,
    0x0B48, 0xF9A7, 0xFE89, 0x0039, 0x00EC, 0x0077, 0xE818, 0xF762, 0x01EA,
    0x074C, 0xFF5C, 0xFC83, 0x0342, 0x3438, 0x6960, 0x0830, 0xE320, 0x0A36,
    0x0065, 0xFF89, 0x0038, 0xFFFE, 0xFF82, 0x0052, 0xFE88, 0x02ED, 0x0062,
    0x014A, 0x0320, 0xFEED, 0x00C5, 0x0482, 0x3DF0, 0x34C0, 0x029E, 0x003C,
    0x0061, 0xFF28, 0xFFCA, 0x005F, 0x0006, 0x0054, 0xFB28, 0x002F, 0x044D,
    0x0463, 0x02B0, 0xFDD1, 0x076E, 0x1B34, 0x39A8, 0x1CF8, 0x0190, 0x0097,
    0xFFFD, 0xFE47, 0x00F0, 0x00E7, 0x001C, 0x000B, 0xF945, 0x01DB, 0x075F,
    0x0264, 0x017E, 0xFEFD, 0x1E64, 0x2AA0, 0x2328, 0x110C, 0xFFF7, 0xFD33,
    0x001D, 0xFF9A, 0x00E9, 0x00D3, 0xFF85, 0x0015, 0xFF7A, 0x01E7, 0xFA6C,
    0xFAD7, 0x01F3, 0xFF58, 0x013E, 0xFBD5, 0x4910, 0x4430, 0xFB84, 0x0137,
    0x0023, 0xFF49, 0x0044, 0x0021, 0xFFD4, 0x0015, 0xFDA5, 0x01DE, 0xFDCF,
    0xFDCC, 0x01ED, 0xFE27, 0x01EC, 0x06E7, 0x43D0, 0x3638, 0x01EE, 0x0054,
    0x000E, 0xFE35, 0x0016, 0x004C, 0xFFA8, 0x0015, 0xF9E2, 0x0197, 0x03E2,
    0x0348, 0x02F3, 0xFC89, 0x0E36, 0x1798, 0x30B8, 0x2538, 0x05B2, 0xFE15,
    0x0011, 0xFFB8, 0x011F, 0x014E, 0xFF41, 0x001C, 0xFF64, 0x0062, 0xF750,
    0xF78E, 0x016F, 0xFEFD, 0x01CC, 0xF7E4, 0x5020, 0x4C70, 0xF724, 0x01EF,
    0x0012, 0xFFC4, 0x011C, 0x0093, 0xFFA5, 0x000F, 0xFEBE, 0xFF9D, 0xF7CC,
    0xF829, 0x0254, 0xFE62, 0x0209, 0xFD12, 0x5090, 0x45B0, 0xF93F, 0x0125,
    0x0032, 0xFE9B, 0x0111, 0xFF91, 0x0093, 0xFFFD, 0xFC84, 0xFDDF, 0xFD5D,
    0xFC0F, 0x0217, 0xFD06, 0x0482, 0x0BB6, 0x46E0, 0x3730, 0x0103, 0xFDC1,
    0x0025, 0x0014, 0x0204, 0x023A, 0xFF41, 0x003F, 0xFF40, 0xFED7, 0xF3D0,
    0xF400, 0x00DB, 0xFF13, 0x031C, 0xF45A, 0x5680, 0x52A0, 0xF314, 0x0297,
    0xFFEE, 0x00C0, 0x0140, 0x0145, 0xFF31, 0x0029, 0xFE5C, 0xFD03, 0xF5B8,
    0xF5CC, 0x02C0, 0xFEF8, 0x043B, 0xF9FE, 0x5620, 0x4BE0, 0xF426, 0x0075,
    0x0015, 0xFF74, 0x02DA, 0xFF1E, 0x0078, 0xFFEA, 0xFD9A, 0xF95F, 0xFA7C,
    0xF5A6, 0x058A, 0xFDD7, 0x06F2, 0x01F8, 0x54E0, 0x4050, 0xF895, 0xFCED,
    0x002C, 0x0012, 0x0319, 0x02B6, 0xFF38, 0x002F, 0xFF16, 0xFF48, 0xF0A6,
    0xF1CC, 0x01B1, 0xFF75, 0x0472, 0xF184, 0x5AD0, 0x5540, 0xEFD8, 0x02B8,
    0xFFEF, 0x01A6, 0x01F8, 0x018F, 0xFED6, 0x0033, 0xFCDF, 0xFB9B, 0xF294,
    0xF556, 0x03BE, 0xFFD7, 0x0775, 0xF93E, 0x5B10, 0x4E50, 0xEE88, 0xFF3D,
    0xFFA1, 0x025D, 0x0189, 0xFF70, 0xFF12, 0x002B, 0xF7CE, 0xF82D, 0xF6E6,
    0xF9D5, 0x06B0, 0x00CF, 0x1040, 0x03E1, 0x58C0, 0x4300, 0xEDF8, 0xF7C4,
    0xFFFB, 0x0079, 0x038A, 0x0271, 0xFF4E, 0xFFEB, 0xFEDB, 0xFF63, 0xEF28,
    0xF13E, 0x032F, 0xFF94, 0x0525, 0xF13A, 0x5D70, 0x5480, 0xEE88, 0x021E,
    0x009E, 0x01C4, 0x02AF, 0x00C9, 0xFEAF, 0x003F, 0xFB34, 0xFA14, 0xF0E4,
    0xF68A, 0x0620, 0xFF8B, 0x09D0, 0xFA7B, 0x60A0, 0x4BC0, 0xE90C, 0xFF1F,
    0x0247, 0x0147, 0xFF86, 0xFF2E, 0xFEC7, 0x0063, 0xEF7C, 0xF728, 0xFA61,
    0xFEDB, 0x08E6, 0x0124, 0x1A08, 0x0A58, 0x5A60, 0x3DC0, 0xE3DC, 0xF458,
    0x00D6, 0x00B8, 0x0478, 0x02BC, 0xFEEF, 0x0076, 0xFD3B, 0xFD7D, 0xED78,
    0xF18C, 0x02DE, 0xFE7D, 0x0728, 0xF030, 0x6230, 0x5360, 0xEC80, 0x0350,
    0x028D, 0x0158, 0x031C, 0xFF7E, 0xFEC2, 0x0075, 0xF84D, 0xF81A, 0xEFC4,
    0xFA76, 0x0749, 0xFE9F, 0x0B50, 0xFE21, 0x6760, 0x4520, 0xE2A4, 0x012C,
    0x0683, 0xFD2D, 0xFE45, 0xFF30, 0xFF1A, 0x0096, 0xE724, 0xF8D5, 0xFFC4,
    0x03B9, 0x08B0, 0xFFF8, 0x1E04, 0x15A0, 0x5AA0, 0x3388, 0xDA08, 0xF73C,
    0x0120, 0x01DA, 0x03F2, 0x0207, 0xFF27, 0x003B, 0xFCE6, 0xFB24, 0xEDC4,
    0xF468, 0x0281, 0xFE61, 0x070A, 0xF252, 0x6540, 0x4D40, 0xED78, 0x033B,
    0x0467, 0x01FA, 0x0251, 0xFF3A, 0xFDFA, 0x0105, 0xF6B0, 0xF68E, 0xEE4C,
    0xFE77, 0x07E8, 0xFD29, 0x09A0, 0x02E1, 0x6E70, 0x3B40, 0xE00C, 0x03CD,
    0x0A4C, 0xF9CD, 0xFE76, 0xFEB5, 0xFF6B, 0x00D3, 0xE414, 0xFA5A, 0xFF02,
    0x0820, 0x0782, 0xFEB9, 0x1BE8, 0x1C40, 0x61C0, 0x2A28, 0xD100, 0xFDA7,
    0x00F5, 0x02A3, 0x06C1, 0x0424, 0xFE8E, 0x023A, 0xFDC5, 0xFDD5, 0xE578,
    0xEFBC, 0x04D0, 0xFBBD, 0x08A0, 0xEDD4, 0x6780, 0x50C0, 0xEB6C, 0x053F,
    0x05BB, 0x05BC, 0x0269, 0x0231, 0xFD3D, 0x02CC, 0xF5DC, 0xF7C4, 0xEA7C,
    0xFD24, 0x050E, 0xFA05, 0x0225, 0x0A4A, 0x7740, 0x2C80, 0xE29C, 0x08CA,
    0x0E38, 0xF86D, 0xFF22, 0xFDAD, 0xFF54, 0x016B, 0xE690, 0xFA8F, 0xFB29,
    0x0CB8, 0x0721, 0xFAB1, 0x0A6C, 0x36B0, 0x6E20, 0x0EEA, 0xC960, 0x0978,
    0x005F, 0xFF86, 0x0039, 0x0005, 0xFF7D, 0x0059, 0xFE90, 0x02F9, 0x00BC,
    0x0128, 0x02F8, 0xFEC6, 0x00C1, 0x040D, 0x3A90, 0x37B0, 0x035C, 0x006D,
    0x0039, 0xFF57, 0x0038, 0x003F, 0xFF91, 0x003A, 0xFC9B, 0x024F, 0x0444,
    0x045A, 0x0331, 0xFDF7, 0x05FC, 0x0E6A, 0x3410, 0x2770, 0x04FD, 0x029B,
    0xFFFB, 0xFE63, 0x00BE, 0x0135, 0x009C, 0x0023, 0xFE88, 0xFC1F, 0x0DE6,
    0x0A08, 0xFDBD, 0xFD50, 0x2528, 0x2690, 0x1E28, 0x0B22, 0xFE3F, 0xFE11,
    0x0019, 0xFF9C, 0x00DC, 0x00DA, 0xFF8F, 0x0018, 0xFF64, 0x01D6, 0xFAA4,
    0xFACB, 0x01EC, 0xFF50, 0x014A, 0xFBEB, 0x4730, 0x4590, 0xFBCA, 0x0143,
    0x0015, 0xFF99, 0x0040, 0x003E, 0xFFC3, 0x0012, 0xFDB1, 0x0134, 0xFE6B,
    0xFE60, 0x014F, 0xFDC7, 0x01F4, 0x05E1, 0x3E28, 0x39E0, 0x0405, 0x0152,
    0x0003, 0xFF2A, 0x0088, 0x007D, 0xFFA3, 0x0006, 0xFB03, 0xFFF2, 0x0533,
    0x04E0, 0xFFDC, 0xFBE7, 0x0D42, 0x0DDC, 0x2E60, 0x2A80, 0x06C7, 0x0493,
    0x0014, 0xFF90, 0x0127, 0x0138, 0xFF69, 0x0019, 0xFF2B, 0x00BE, 0xF776,
    0xF78A, 0x0114, 0xFF02, 0x01DF, 0xF7D2, 0x4EC0, 0x4D80, 0xF794, 0x01F9,
    0x000B, 0xFFC3, 0x00E8, 0x00B6, 0xFFBA, 0x000A, 0xFE50, 0x003D, 0xF86D,
    0xF89D, 0x0133, 0xFE32, 0x0225, 0xFCBB, 0x4BC0, 0x4830, 0xFB4F, 0x01A7,
    0x0005, 0xFFA9, 0x0075, 0x0042, 0x001D, 0x0003, 0xFBD3, 0xFDAC, 0xFE23,
    0xFDDE, 0xFF44, 0xFC54, 0x049E, 0x09F8, 0x3F08, 0x39F8, 0x05A7, 0x0124,
    0x002B, 0xFFD1, 0x020B, 0x021B, 0xFF86, 0x002F, 0xFF35, 0xFF63, 0xF410,
    0xF40C, 0x0021, 0xFF3B, 0x02F4, 0xF422, 0x5500, 0x53C0, 0xF392, 0x02B7,
    0xFFFD, 0x002B, 0x011F, 0x0119, 0xFFB3, 0x0010, 0xFE3D, 0xFEBB, 0xF690,
    0xF6A2, 0x00A4, 0xFEA7, 0x0354, 0xF952, 0x5130, 0x4DF0, 0xF71E, 0x0183,
    0xFFF0, 0xFFF9, 0x00FF, 0x0099, 0x001D, 0xFFF4, 0xFBEC, 0xFD82, 0xFA23,
    0xF9FE, 0xFFC6, 0xFD84, 0x05A0, 0x020F, 0x4960, 0x4400, 0xFE1C, 0x0067,
    0x0010, 0xFFE4, 0x02AC, 0x02C2, 0xFF77, 0x0021, 0xFF79, 0x0042, 0xF12A,
    0xF1D0, 0x00ED, 0xFFA3, 0x03BF, 0xF128, 0x5880, 0x56B0, 0xF09C, 0x0303,
    0xFFEB, 0x0090, 0x01BE, 0x01B2, 0xFF9D, 0xFFFD, 0xFE29, 0xFDE7, 0xF436,
    0xF4E4, 0x00D1, 0xFF93, 0x04E2, 0xF6D6, 0x55A0, 0x51B0, 0xF2E6, 0x00FB,
    0xFFC9, 0x0076, 0x0116, 0x00AC, 0xFFEE, 0xFFF0, 0xF94C, 0xFC09, 0xF989,
    0xF9FB, 0x013F, 0xFF78, 0x0C3E, 0x00DC, 0x4D10, 0x4720, 0xF79C, 0xFBAB,
    0xFEE5, 0x0070, 0x01D4, 0x017A, 0xFFFD, 0xFEF4, 0x00D0, 0x03A0, 0xF070,
    0xF15C, 0x049E, 0x0139, 0x01DF, 0xF1F2, 0x57E0, 0x54F0, 0xF150, 0x006A,
    0xFFCB, 0x00CE, 0x0206, 0x0173, 0xFFA1, 0xFFC1, 0xFDE1, 0xFECC, 0xF21C,
    0xF43C, 0x0331, 0xFFEB, 0x0584, 0xF67A, 0x58F0, 0x5190, 0xEFC4, 0x0031,
    0x002B, 0x008A, 0x0132, 0x0073, 0xFFBD, 0xFFF8, 0xF41C, 0xF9CE, 0xF9A8,
    0xFB30, 0x04B6, 0x018E, 0x1754, 0x0411, 0x5070, 0x46D0, 0xEEA4, 0xF3AE,
    0x0033, 0x0050, 0x0386, 0x02F4, 0xFFA7, 0xFFFE, 0xFE50, 0xFFE1, 0xEF18,
    0xF09A, 0x01CE, 0xFF0A, 0x0568, 0xEF54, 0x5CD0, 0x5790, 0xEDD8, 0x03A3,
    0x0089, 0x00C5, 0x0290, 0x0157, 0xFF93, 0xFFD6, 0xFC9B, 0xFC93, 0xF1B0,
    0xF5EC, 0x02E8, 0xFF7E, 0x0718, 0xF728, 0x5C90, 0x5070, 0xEB30, 0x01C6,
    0x02CF, 0xFF22, 0x00B4, 0xFFF9, 0xFF63, 0x0027, 0xEBC0, 0xF82A, 0xFA3D,
    0xFF1C, 0x0914, 0x02F9, 0x22F0, 0x0D3C, 0x53D0, 0x4280, 0xE06C, 0xEDA4,
    0x00DB, 0x00C0, 0x0360, 0x02BD, 0xFFC6, 0x0050, 0xFDA1, 0xFDAF, 0xF000,
    0xF2AA, 0x0042, 0xFE8E, 0x05C5, 0xF0AC, 0x5D40, 0x5500, 0xEEE8, 0x03CE,
    0x0259, 0x00FB, 0x0286, 0x0113, 0xFF14, 0x007C, 0xFA95, 0xFA7B, 0xF118,
    0xF8B2, 0x02D2, 0xFE08, 0x0717, 0xFA1F, 0x5F70, 0x4C70, 0xE938, 0x0383,
    0x0731, 0xFDCB, 0x0007, 0xFF5B, 0xFE71, 0x0050, 0xE6E4, 0xF554, 0xF8BE,
    0x0396, 0x0BC4, 0x0368, 0x2530, 0x151C, 0x5CA0, 0x3BC0, 0xD330, 0xEF54,
    0x00BE, 0x00B5, 0x06D8, 0x05DC, 0xFDF4, 0x022E, 0xFD7C, 0x01B7, 0xE80C,
    0xEB3C, 0x053A, 0xFC0B, 0x070E, 0xECB0, 0x5FE0, 0x5930, 0xEB74, 0x05B4,
    0x03DF, 0x02C9, 0x0565, 0x03FA, 0x0007, 0x01E6, 0xFAB6, 0xF7DA, 0xEE18,
    0xF342, 0xFFA7, 0xFC69, 0x01B5, 0x0535, 0x5E30, 0x4580, 0xEE48, 0x053A,
    0x09D8, 0x0211, 0x012A, 0xFDBE, 0xFF24, 0xFDE0, 0xF178, 0xE504, 0xEFD8,
    0x0EA2, 0x0998, 0x0385, 0x0FB0, 0x3748, 0x6D50, 0x1EBC, 0xCBE8, 0xF72A,
};

static inline void
expand_line(float *line, unsigned const w)
{
    line[-2] = line[0];
    line[-1] = line[0];
    line[w + 0] = line[w - 1];
    line[w + 1] = line[w - 1];
    line[w + 2] = line[w - 1];
}

static inline void
expand_matrix(float *mtx,
              unsigned const w, unsigned const h,
              ptrdiff_t const stride)
{
    for (unsigned i = 0; i < h; ++i)
        expand_line(mtx + (i + 3) * MTX_STRIDE(stride) + 2, w);
    memcpy(mtx + 0 * MTX_STRIDE(stride), mtx + 3 * MTX_STRIDE(stride), stride);
