#ifdef HAVE_CONFIG_H
# include "config.h"
#endif

#include <fcntl.h>
#include <stdio.h>
#include <sys/stat.h>
#include <sys/time.h>
#include <sys/types.h>
#include <time.h>
#include <vlc_common.h>
#include <vlc_filter.h>
#include <vlc_picture.h>
#include <vlc_plugin.h>

#define ENABLE_BENCH 1
#define NUM_THREADS 8

#define ROUND2(x, n) (((x) + (1LL << ((n) - 1))) >> (n))

struct filter_sys
{
    uint8_t *input;
    uint8_t *pass_0;
    uint8_t *pass_1;
    uint8_t *pass_2;
    int16_t *weights;
    int16_t *shuf_weights;

    unsigned width;
    unsigned height;
    ptrdiff_t stride;

#if ENABLE_BENCH
    struct timeval *tv_delta;
    size_t num_tv_delta;
#endif
};

struct vec3f  { float   a; float   b; float   c;            };
struct vec4f  { float   a; float   b; float   c; float   d; };
struct vec4u8 { uint8_t a; uint8_t b; uint8_t c; uint8_t d; };

/* FIXME:
 *  - 1 memcpy of 1*stride + 1 memcpy of 2 * stride
 */

static int16_t const lut_weights[] =
{
    0x001A, 0xFFAE, 0x0032, 0x0039, 0xFFAF, 0x001B, 0xFF79, 0x0152, 0x011A,
    0x0100, 0x015F, 0xFF6B, 0x0066, 0x0202, 0x1B18, 0x1C14, 0x023B, 0x0084,
    0x0015, 0xFFB8, 0x006E, 0x005C, 0xFF9A, 0x0015, 0xFF34, 0x00D1, 0x0297,
    0x02A4, 0x008B, 0xFEAC, 0x016C, 0x01FE, 0x1480, 0x1A50, 0x0631, 0x02D7,
    0x0006, 0x0025, 0x00AC, 0x00A3, 0xFFEE, 0x0004, 0xFFD8, 0xF98E, 0x0719,
    0x0ADE, 0xFB20, 0xFF49, 0xFFB5, 0xFAAC, 0x0A92, 0x1B48, 0x156C, 0x0326,
    0x000C, 0xFFC7, 0x006E, 0x006E, 0xFFCD, 0x000C, 0xFFA9, 0x00F5, 0xFD6A,
    0xFD58, 0x00EC, 0xFFB2, 0x00A0, 0xFDE6, 0x22C8, 0x2390, 0xFDF5, 0x00A4,
    0x0009, 0xFFDE, 0x0023, 0x0023, 0xFFC9, 0x000B, 0xFEE7, 0x0098, 0xFF41,
    0xFF46, 0x008B, 0xFEDD, 0x00A9, 0x01F6, 0x1D00, 0x1F18, 0x02E1, 0x00F9,
    0x0004, 0xFFBC, 0x0064, 0x0060, 0xFF98, 0x0003, 0xFEE3, 0xFECE, 0x0307,
    0x0330, 0xFF09, 0xFEB5, 0x014A, 0x0308, 0x1644, 0x1890, 0x072C, 0x03E8,
    0x000D, 0xFFB4, 0x009C, 0x0094, 0xFFC7, 0x000A, 0xFF81, 0x0089, 0xFBC6,
    0xFBBC, 0x005F, 0xFF95, 0x00FC, 0xFBCB, 0x26C0, 0x2760, 0xFBEA, 0x00EF,
    0x0005, 0xFFDC, 0x005C, 0x0074, 0xFFE0, 0x0006, 0xFF19, 0x0097, 0xFC51,
    0xFC39, 0x001D, 0xFF28, 0x00D3, 0xFDA6, 0x2420, 0x25E8, 0xFE5B, 0x0112,
    0x0006, 0xFFF5, 0x0032, 0x0044, 0xFFBE, 0x0008, 0xFE74, 0xFF28, 0xFF35,
    0xFF53, 0xFE5C, 0xFE3E, 0x007F, 0x0287, 0x1D54, 0x1FE4, 0x04C2, 0x0209,
    0x0018, 0xFFC3, 0x010D, 0x0106, 0xFFE9, 0x0016, 0xFF9E, 0x0011, 0xFA06,
    0xFA08, 0xFFB2, 0xFF9B, 0x015B, 0xF9C9, 0x29E0, 0x2A78, 0xFA11, 0x0179,
    0x0008, 0xFFD9, 0x008D, 0x0090, 0x0015, 0xFFFF, 0xFF54, 0x0051, 0xFB52,
    0xFB49, 0xFF5D, 0xFF1F, 0x00C2, 0xFB8F, 0x26F8, 0x2898, 0xFCA8, 0x01AA,
    0xFFFD, 0x0004, 0x0054, 0x0085, 0xFFF0, 0xFFFC, 0xFED6, 0xFFB4, 0xFD1A,
    0xFD2B, 0xFE8D, 0xFE15, 0x0034, 0xFEF0, 0x2220, 0x24D8, 0x00EF, 0x02BC,
    0x0010, 0xFFBB, 0x0161, 0x0156, 0xFFF2, 0x0008, 0xFFD2, 0x0076, 0xF8E8,
    0xF895, 0x0021, 0xFFBC, 0x0181, 0xF84E, 0x2B58, 0x2C40, 0xF894, 0x01DF,
    0xFFFF, 0xFFCE, 0x00D9, 0x00DF, 0x0048, 0xFFF5, 0xFFC9, 0x0068, 0xFA72,
    0xFA1B, 0xFEF3, 0xFF15, 0x007E, 0xF973, 0x28E0, 0x2AD0, 0xFB6B, 0x0271,
    0xFFF8, 0xFFF6, 0x0057, 0x008D, 0x0035, 0xFFE8, 0xFFBF, 0x0091, 0xFD09,
    0xFCC9, 0xFDE7, 0xFCC2, 0xFDDB, 0xFBC6, 0x2398, 0x2698, 0x007A, 0x05FA,
    0xFF7A, 0xFFFF, 0x00BD, 0x00EA, 0x0038, 0xFF72, 0x009C, 0x024F, 0xF8AE,
    0xF838, 0x01D0, 0x0068, 0x0035, 0xF8A8, 0x2A78, 0x2BF0, 0xF8F9, 0x00F0,
    0xFFE1, 0xFFD1, 0x00BA, 0x0103, 0x0067, 0xFFE5, 0xFFF6, 0x0198, 0xFA1E,
    0xF90E, 0xFF66, 0xFEF0, 0x0019, 0xF7E2, 0x28C8, 0x2C78, 0xFB3D, 0x02C2,
    0xFFFC, 0xFFDE, 0x003A, 0x009B, 0x0040, 0x0018, 0x00C8, 0x0244, 0xFDB0,
    0xFCE2, 0xFCB7, 0xFA30, 0xF9F0, 0xF730, 0x2370, 0x2858, 0x021A, 0x0B76,
    0xFFFF, 0xFFD4, 0x017A, 0x01C3, 0x0028, 0x0019, 0xFF85, 0x00E7, 0xF84D,
    0xF78C, 0xFFF0, 0xFF28, 0x01D1, 0xF6EC, 0x2BC8, 0x2E68, 0xF7AA, 0x02B4,
    0xFFEB, 0xFFC9, 0x00AB, 0x0148, 0x0063, 0x0045, 0xFFBF, 0x0174, 0xFAF6,
    0xF8D8, 0xFE49, 0xFE4D, 0x00E3, 0xF598, 0x2838, 0x2E48, 0xFB94, 0x038C,
    0x0013, 0xFFB3, 0xFFFC, 0x005C, 0xFF90, 0x0167, 0x0176, 0x0484, 0xFF9E,
    0xFD25, 0xFBE4, 0xF606, 0xF6EA, 0xF01A, 0x2138, 0x29F8, 0x06D6, 0x1134,
    0x0028, 0xFFE3, 0x015F, 0x01B0, 0x0060, 0x006D, 0xFF47, 0x0021, 0xF955,
    0xF800, 0xFED8, 0xFED1, 0x01E7, 0xF774, 0x2A80, 0x2EA0, 0xF856, 0x02E3,
    0x003E, 0xFF8A, 0x0089, 0x0143, 0x007E, 0x012C, 0xFF04, 0x0169, 0xFC59,
    0xF88C, 0xFD3D, 0xFD4A, 0x01C2, 0xF49C, 0x2638, 0x2FB8, 0xFD0F, 0x038C,
    0x0024, 0xFF3D, 0xFFAD, 0x0006, 0xFEE5, 0x0396, 0x01AA, 0x05DD, 0x01DB,
    0xFC71, 0xFA85, 0xF382, 0xF7A6, 0xE988, 0x1DEC, 0x2E60, 0x0ABC, 0x1260,
    0x0117, 0xFEFA, 0x02EE, 0x036C, 0x005A, 0x005F, 0xFE05, 0x029D, 0xF59E,
    0xF406, 0x00DC, 0xFEBE, 0x02DA, 0xF5BA, 0x2C98, 0x2FF0, 0xF658, 0x0387,
    0x00F3, 0x0003, 0x01FD, 0x02B3, 0x0164, 0x01F0, 0xFE35, 0xFFD3, 0xF9A1,
    0xF70C, 0xFBED, 0xFD5B, 0x029D, 0xF724, 0x22C0, 0x2F18, 0x029B, 0x00DA,
    0xFEEB, 0xFF8A, 0xFEF4, 0x0094, 0x0109, 0x04E3, 0x01CF, 0x045D, 0x07B6,
    0xF836, 0xF22C, 0xF8C8, 0xFBAA, 0xE540, 0x0FF6, 0x3740, 0x1B0C, 0x07E6,
    0x0029, 0xFFC1, 0xFFFF, 0x001C, 0xFFC5, 0x0033, 0xFF76, 0x0190, 0x00A5,
    0x0031, 0x0177, 0xFF44, 0x001E, 0x014F, 0x1A60, 0x1EF8, 0x0241, 0x0062,
    0x002A, 0x0003, 0x0030, 0xFFE5, 0xFF94, 0x0030, 0xFEE8, 0x0158, 0x0232,
    0x0227, 0x0017, 0xFD94, 0x004B, 0x00C8, 0x0E7C, 0x1CD4, 0x0D9A, 0x03B7,
    0x0006, 0x000E, 0x0073, 0x0078, 0xFF23, 0xFFFF, 0xFF7F, 0x00BF, 0x0132,
    0x03B0, 0x00EE, 0xFCA2, 0xFE99, 0xFFFC, 0x0886, 0x1194, 0x1550, 0x0F32,
    0x000A, 0xFFC2, 0x0069, 0x0074, 0xFFCD, 0x000F, 0xFFAC, 0x00FA, 0xFD6B,
    0xFD36, 0x00F3, 0xFFBD, 0x009B, 0xFDC2, 0x2218, 0x2488, 0xFDEA, 0x009F,
    0x000A, 0xFFEA, 0x0011, 0x0022, 0xFFA5, 0x0011, 0xFF13, 0x00F7, 0xFEE6,
    0xFEE7, 0x00EF, 0xFED2, 0x002A, 0x00F7, 0x1B1C, 0x21E8, 0x0374, 0x00F6,
    0x000B, 0xFFD4, 0x0026, 0x000B, 0xFF1A, 0x0007, 0xFE44, 0x0179, 0x01A4,
    0x01F1, 0x00CC, 0xFCF1, 0xFF0A, 0x02D9, 0x129C, 0x185C, 0x0BCC, 0x071B,
    0x000E, 0xFFA1, 0x00A7, 0x0090, 0xFFDC, 0x0008, 0xFF7F, 0x00B8, 0xFBC7,
    0xFBA8, 0x0031, 0xFFB2, 0x00F8, 0xFB92, 0x2638, 0x2810, 0xFBF2, 0x00E6,
    0x0008, 0xFFD2, 0x0049, 0x008E, 0xFFE2, 0x0009, 0xFF31, 0x012A, 0xFC14,
    0xFBE6, 0xFFCE, 0xFF5F, 0x0092, 0xFC9F, 0x22D8, 0x2848, 0xFE89, 0x0104,
    0xFFFE, 0x004A, 0xFFC8, 0x0088, 0xFF4E, 0x0019, 0xFE83, 0x010B, 0xFE07,
    0xFEAE, 0xFEEF, 0xFE42, 0xFEE0, 0x0082, 0x1B98, 0x2370, 0x05DB, 0x0241,
    0x0020, 0xFFA0, 0x011D, 0x0102, 0x000A, 0x0012, 0xFF89, 0x006E, 0xFA00,
    0xF9E8, 0xFF6C, 0xFFA0, 0x014B, 0xF98A, 0x2950, 0x2B40, 0xFA2D, 0x018E,
    0x0015, 0xFF99, 0x00A2, 0x00A0, 0x0060, 0xFFF7, 0xFF7C, 0x0160, 0xFAE6,
    0xFADC, 0xFE82, 0xFF2E, 0x003B, 0xFA13, 0x25F0, 0x2B10, 0xFCFF, 0x021E,
    0xFFF5, 0x003C, 0xFF8F, 0x016D, 0xFFBA, 0x000A, 0xFEEC, 0x02C5, 0xFAD3,
    0xFD3E, 0xFCAF, 0xFECD, 0xFE76, 0xFC4A, 0x2028, 0x2A70, 0x00FC, 0x0379,
    0x0018, 0xFF9C, 0x015B, 0x018D, 0x0009, 0x0016, 0xFFBB, 0x00D8, 0xF8E6,
    0xF853, 0xFFA4, 0xFF8B, 0x015C, 0xF7EC, 0x2AA0, 0x2D68, 0xF8C2, 0x0239,
    0x001A, 0xFF6B, 0x00C8, 0x00FC, 0x00D3, 0xFFF8, 0xFFEB, 0x01DF, 0xFAAB,
    0xF94A, 0xFDCD, 0xFE70, 0xFF9E, 0xF744, 0x2728, 0x2D88, 0xFC9F, 0x03BB,
    0x0016, 0xFF89, 0xFFB8, 0x00C5, 0x012E, 0xFFD0, 0x0067, 0x0358, 0xFCEA,
    0xFB73, 0xFC16, 0xFBE7, 0xFBE2, 0xF6FC, 0x2180, 0x2C60, 0x01F1, 0x0820,
    0xFFF5, 0xFFA7, 0x0139, 0x01C5, 0x003C, 0xFFFE, 0xFFCA, 0x0197, 0xF89F,
    0xF794, 0xFFB2, 0xFF6E, 0x010F, 0xF744, 0x2A40, 0x2EB8, 0xF89D, 0x0293,
    0x001F, 0xFF58, 0x0064, 0x0157, 0x00E2, 0x004F, 0xFFC6, 0x0310, 0xFB45,
    0xF872, 0xFD0A, 0xFD9A, 0xFF90, 0xF486, 0x25E0, 0x3050, 0xFD3D, 0x04E8,
    0x0031, 0xFF63, 0xFF97, 0xFFC3, 0x00A4, 0x0124, 0x0092, 0x0473, 0xFF6D,
    0xFD30, 0xFB94, 0xF7BE, 0xFA2C, 0xF1EE, 0x1EE0, 0x2D30, 0x052C, 0x0D04,
    0x003B, 0xFF77, 0x015E, 0x023C, 0x005C, 0x006B, 0xFF3E, 0x016F, 0xF8C6,
    0xF6BC, 0xFEBF, 0xFE9D, 0x01A8, 0xF640, 0x29B0, 0x3118, 0xF818, 0x0394,
    0x003B, 0xFF61, 0xFFBF, 0x018E, 0x00AC, 0x0147, 0xFF50, 0x03A5, 0xFD3B,
    0xF7E2, 0xFC0D, 0xFC26, 0x0096, 0xF152, 0x2290, 0x33B0, 0xFF10, 0x05A8,
    0x004B, 0xFF8D, 0xFF98, 0xFF23, 0xFE96, 0x0342, 0xFFFC, 0x0458, 0x01DD,
    0xFFE2, 0xFC6A, 0xF392, 0xFB9E, 0xED04, 0x19C4, 0x2D50, 0x0AD0, 0x0F02,
    0x001E, 0xFF94, 0x0103, 0x01F9, 0x00ED, 0x0090, 0xFF31, 0x0141, 0xFA34,
    0xF6E2, 0xFD92, 0xFE73, 0x019E, 0xF6BC, 0x26A0, 0x32A0, 0xF929, 0x0385,
    0x0082, 0xFEFD, 0xFF9D, 0x0128, 0x00FD, 0x0234, 0xFE94, 0x03F4, 0xFF3C,
    0xF726, 0xFB47, 0xFB58, 0x01E7, 0xF006, 0x1DA0, 0x3738, 0x0171, 0x04D0,
    0x006A, 0xFFB5, 0xFF5A, 0xFF3B, 0xFCE6, 0x0526, 0xFF5C, 0x03C1, 0x0410,
    0xFF81, 0xFD2D, 0xF20A, 0xFED3, 0xE880, 0x1514, 0x30E0, 0x0E20, 0x0DF4,
    0x011D, 0xFF47, 0x0212, 0x0361, 0x0151, 0x007A, 0xFDDE, 0x0268, 0xF7DE,
    0xF2BC, 0xFEEA, 0xFEE3, 0x02A0, 0xF5B6, 0x2860, 0x33C0, 0xF6EA, 0x0450,
    0x0166, 0xFE9F, 0x0118, 0x0134, 0x02DE, 0x02DE, 0xFD02, 0x0287, 0xFE92,
    0xF53E, 0xFBE2, 0xFAEE, 0x0465, 0xF14E, 0x1640, 0x3BA0, 0x0525, 0x0112,
    0x00B5, 0xFFAA, 0xFED6, 0xFF91, 0xFC36, 0x071C, 0xFD58, 0x0391, 0x065C,
    0xFD94, 0xFD47, 0xF348, 0x04BC, 0xE4B0, 0x0775, 0x3710, 0x1B58, 0x0536,
    0x0029, 0xFFBD, 0xFFFC, 0x0016, 0xFFAF, 0x0038, 0xFF90, 0x0186, 0x00A9,
    0x0008, 0x0198, 0xFF53, 0x001C, 0x010D, 0x1900, 0x20D8, 0x0228, 0x0044,
    0x0034, 0xFFE2, 0x0013, 0xFFCC, 0xFFAA, 0x003B, 0xFF54, 0x020E, 0x01CA,
    0x00F2, 0xFFE4, 0xFDD9, 0xFF5D, 0x00D3, 0x0A88, 0x21B8, 0x10C4, 0x0118,
    0x0008, 0x000B, 0xFFD6, 0xFFB7, 0xFFAB, 0x0003, 0xFF7E, 0x031C, 0x004C,
    0x0051, 0xFF8B, 0xFF1B, 0xFE6B, 0x006C, 0x052E, 0x1B40, 0x1D34, 0x0259,
    0x000C, 0xFFC1, 0x0071, 0x007A, 0xFFCE, 0x0010, 0xFFAA, 0x00FE, 0xFD6C,
    0xFD0C, 0x0101, 0xFFC6, 0x009A, 0xFDA1, 0x2170, 0x2580, 0xFDC6, 0x0093,
    0x000D, 0xFFE2, 0x0002, 0x002F, 0xFF71, 0x001C, 0xFF43, 0x016D, 0xFE77,
    0xFE5B, 0x0176, 0xFEE0, 0xFFD1, 0xFFCF, 0x1980, 0x2550, 0x037F, 0x008C,
    0x0016, 0xFFE5, 0x001C, 0xFFB8, 0xFEC4, 0x0015, 0xFEA9, 0x02A7, 0xFFA3,
    0x0075, 0x025E, 0xFE33, 0xFE4F, 0x0114, 0x10DC, 0x1BD0, 0x113C, 0x0218,
    0x0011, 0xFF84, 0x00C1, 0x0088, 0xFFEF, 0x0006, 0xFF71, 0x00E7, 0xFBBA,
    0xFB8D, 0x0011, 0xFFD7, 0x0105, 0xFB6A, 0x25C0, 0x28C0, 0xFBF7, 0x00BD,
    0x000D, 0xFFB7, 0x0061, 0x0097, 0xFFE2, 0x000D, 0xFF38, 0x01AA, 0xFBC5,
    0xFB81, 0xFFB8, 0xFFA6, 0x00A2, 0xFB99, 0x21F0, 0x2AB8, 0xFE40, 0x00B0,
    0xFFFF, 0x0067, 0xFF88, 0x00C2, 0xFED6, 0x002D, 0xFEC5, 0x0239, 0xFD23,
    0xFDEA, 0xFFC8, 0xFEC0, 0xFE7A, 0xFEA8, 0x198C, 0x2760, 0x0673, 0x013A,
    0x0024, 0xFF84, 0x0138, 0x00F3, 0x002E, 0x000F, 0xFF77, 0x00BD, 0xF9E5,
    0xF9C6, 0xFF35, 0xFFAF, 0x0148, 0xF94E, 0x28D0, 0x2C08, 0xFA2E, 0x018D,
    0x0021, 0xFF6A, 0x00C8, 0x009E, 0x00B5, 0xFFF1, 0xFF62, 0x0237, 0xFA6B,
    0xFA4E, 0xFDE3, 0xFF70, 0x006A, 0xF8DE, 0x2518, 0x2D90, 0xFCE3, 0x01F0,
    0xFFFA, 0x007E, 0xFEF5, 0x01F1, 0xFFD8, 0x0008, 0xFE4D, 0x050B, 0xF8D6,
    0xFDBD, 0xFAFF, 0x0001, 0xFECA, 0xFAAC, 0x1DF0, 0x2FC8, 0xFFAD, 0x02F8,
    0x001F, 0xFF8C, 0x014D, 0x01B0, 0x002D, 0x000F, 0xFF98, 0x011C, 0xF8F1,
    0xF811, 0xFF45, 0xFF89, 0x015A, 0xF7B8, 0x29F0, 0x2E60, 0xF8DE, 0x0254,
    0x0036, 0xFF3A, 0x00AF, 0x00EC, 0x0160, 0x0005, 0xFF98, 0x02BC, 0xFAF1,
    0xF8B1, 0xFCBC, 0xFE56, 0xFFF8, 0xF5FC, 0x2550, 0x3050, 0xFD2B, 0x03C8,
    0x0019, 0xFFC6, 0xFF51, 0x007B, 0x021F, 0xFFFF, 0xFF7F, 0x044B, 0xFC2A,
    0xFB08, 0xFA3D, 0xFD62, 0xFE2D, 0xF658, 0x1EB4, 0x31D0, 0x014A, 0x054B,
    0x0029, 0xFF6A, 0x0149, 0x022D, 0x0048, 0x003A, 0xFF67, 0x01D4, 0xF8A6,
    0xF728, 0xFEC2, 0xFF10, 0x0148, 0xF69E, 0x2960, 0x3088, 0xF88F, 0x0338,
    0x004C, 0xFF62, 0xFFE1, 0x013A, 0x014B, 0x00C8, 0xFF23, 0x03AA, 0xFC78,
    0xF889, 0xFB16, 0xFCDB, 0x0020, 0xF300, 0x2250, 0x33B8, 0xFEC2, 0x057C,
    0x0021, 0xFFDE, 0xFF8C, 0xFF1A, 0x016B, 0x018B, 0xFF79, 0x0330, 0x0055,
    0xFC3B, 0xF99A, 0xF9B5, 0xFEED, 0xF236, 0x1B04, 0x31E0, 0x06F4, 0x06E0,
    0x0049, 0xFF46, 0x012D, 0x026F, 0x00A8, 0x0067, 0xFF33, 0x01E1, 0xF937,
    0xF63E, 0xFDDF, 0xFEC6, 0x0192, 0xF60C, 0x27C0, 0x3338, 0xF858, 0x03AB,
    0x007A, 0xFFA3, 0xFF3C, 0x00CF, 0x010E, 0x01E9, 0xFE82, 0x038E, 0xFF55,
    0xF8E1, 0xF9E7, 0xFB03, 0x0125, 0xF0B2, 0x1C74, 0x37F8, 0x00FF, 0x0671,
    0x0012, 0x003F, 0xFFCC, 0xFEC3, 0xFF58, 0x0322, 0xFF09, 0x01D9, 0x0285,
    0xFFCF, 0xF948, 0xF6AC, 0x0108, 0xEFC0, 0x13EC, 0x31E8, 0x0E5A, 0x0687,
    0x004D, 0xFF32, 0x00D9, 0x01F0, 0x0185, 0x0074, 0xFF0B, 0x01E6, 0xFACD,
    0xF65A, 0xFC75, 0xFEA9, 0x0172, 0xF6BA, 0x23B0, 0x3590, 0xF97C, 0x03A1,
    0x00D5, 0xFF82, 0xFF66, 0xFFD7, 0x014B, 0x02BB, 0xFDDB, 0x02F3, 0x0197,
    0xF905, 0xF97A, 0xF9EF, 0x022F, 0xF0BA, 0x1544, 0x3C70, 0x030D, 0x05EB,
    0x000D, 0x0083, 0xFFEB, 0xFF0A, 0xFD82, 0x048B, 0xFEB6, 0x00D9, 0x03A8,
    0x00F3, 0xFA0F, 0xF500, 0x0304, 0xEDF0, 0x0FA2, 0x3260, 0x12A4, 0x059F,
    0x0192, 0xFEA3, 0x023B, 0x0341, 0x0183, 0x00C7, 0xFE4D, 0x01BD, 0xF971,
    0xF1F4, 0xFE1E, 0xFF3D, 0x01F9, 0xF70E, 0x2450, 0x3780, 0xF5EC, 0x0476,
    0x012F, 0xFFD3, 0xFF5D, 0x003B, 0x0310, 0x02FC, 0xFD20, 0x0176, 0x0214,
    0xF776, 0xFB0A, 0xF980, 0x030B, 0xF44C, 0x0A40, 0x4490, 0x0308, 0x0389,
    0x003C, 0x0076, 0x001C, 0xFF44, 0xFCD3, 0x05A4, 0xFE41, 0xFFAE, 0x03A6,
    0x00F5, 0xFBB1, 0xF40C, 0x051B, 0xF190, 0x0418, 0x34B0, 0x1A1C, 0x01A1,
    0x0027, 0xFFB9, 0xFFE1, 0x0025, 0xFF9C, 0x0043, 0xFFAB, 0x018F, 0x00A1,
    0xFFCD, 0x01CC, 0xFF78, 0x0004, 0x00E8, 0x17DC, 0x22A8, 0x01CB, 0x0011,
    0x0036, 0xFFAB, 0xFFBC, 0xFFD1, 0xFFC7, 0x0022, 0xFF91, 0x02A0, 0x0158,
    0xFF81, 0x0059, 0x0039, 0xFF3E, 0x00B5, 0x0AC6, 0x2920, 0x09C2, 0xFF74,
    0x0016, 0xFFC2, 0xFFBB, 0x002F, 0xFF6A, 0x0011, 0xFFD5, 0x0325, 0xFF80,
    0xFD2B, 0x0339, 0xFFB1, 0xFE80, 0xFF5F, 0x053D, 0x2AD8, 0x0FF2, 0x0051,
    0x000D, 0xFFB5, 0x0077, 0x007D, 0xFFCB, 0x0015, 0xFFAE, 0x0106, 0xFD6A,
    0xFCEA, 0x0121, 0xFFCD, 0x009A, 0xFD82, 0x20F0, 0x2658, 0xFD8E, 0x0082,
    0x000F, 0xFFD4, 0xFFF7, 0x004A, 0xFF48, 0x0028, 0xFF6E, 0x01C0, 0xFE3A,
    0xFD82, 0x0232, 0xFF07, 0xFFBD, 0xFEE2, 0x189C, 0x28E8, 0x01E4, 0x0045,
    0x001B, 0xFFD4, 0xFFC0, 0xFFDB, 0xFE78, 0x0026, 0xFF0B, 0x03E0, 0xFE8B,
    0xFE7F, 0x03B7, 0xFF84, 0xFDAA, 0xFFF6, 0x1210, 0x24B8, 0x08F0, 0x0152,
    0x0016, 0xFF6F, 0x00DB, 0x007B, 0xFFFB, 0x0007, 0xFF65, 0x010A, 0xFBA8,
    0xFB80, 0x0005, 0xFFF5, 0x010D, 0xFB5A, 0x2558, 0x2960, 0xFBD3, 0x009C,
    0x0018, 0xFF89, 0x0098, 0x0084, 0xFFF6, 0x0008, 0xFF38, 0x01EE, 0xFB8F,
    0xFB03, 0xFFF8, 0xFFE4, 0x00F4, 0xFAEE, 0x2148, 0x2CC0, 0xFD8A, 0x0041,
    0x000C, 0x0017, 0xFFE0, 0x0078, 0xFEA5, 0x002A, 0xFF26, 0x028A, 0xFD09,
    0xFC78, 0x020A, 0xFEE6, 0xFEEB, 0xFD62, 0x18B4, 0x2B40, 0x040A, 0x004A,
    0x002D, 0xFF6C, 0x014F, 0x00F2, 0x0041, 0x0008, 0xFF60, 0x00F2, 0xF9C8,
    0xF9AA, 0xFF1E, 0xFFCE, 0x0158, 0xF932, 0x2878, 0x2CA0, 0xFA21, 0x016D,
    0x0032, 0xFF43, 0x0117, 0x0072, 0x00F3, 0xFFE1, 0xFF26, 0x0294, 0xFA0D,
    0xF9C0, 0xFDD9, 0xFFE3, 0x0116, 0xF845, 0x2498, 0x2F78, 0xFC4E, 0x0138,
    0x0024, 0xFFDB, 0x0041, 0x0073, 0x00D7, 0xFFA5, 0xFE96, 0x046B, 0xF9AF,
    0xFB4F, 0xFD4F, 0x0010, 0x000A, 0xF96E, 0x1DE0, 0x31F0, 0xFEEC, 0x0144,
    0x0026, 0xFF7D, 0x014E, 0x01C6, 0x0038, 0x000C, 0xFF88, 0x0142, 0xF8E3,
    0xF7EA, 0xFF1A, 0xFFA2, 0x015B, 0xF7C0, 0x2978, 0x2F20, 0xF8C0, 0x0246,
    0x0049, 0xFF3D, 0x00AB, 0x00EB, 0x01A1, 0xFFE2, 0xFF2E, 0x02E8, 0xFAF0,
    0xF806, 0xFC68, 0xFF43, 0x00F9, 0xF614, 0x23D0, 0x32E8, 0xFC6C, 0x027E,
    0x002D, 0xFFB6, 0xFFB8, 0x000C, 0x02F0, 0xFF5A, 0xFF1D, 0x0449, 0xFBC1,
    0xF921, 0xFAA2, 0xFFB4, 0x0007, 0xF6F0, 0x1D28, 0x3620, 0xFF05, 0x022D,
    0x0038, 0xFF4E, 0x013D, 0x0267, 0x004F, 0x0049, 0xFF41, 0x0213, 0xF899,
    0xF702, 0xFE3D, 0xFF2E, 0x016D, 0xF686, 0x2878, 0x31D0, 0xF873, 0x0334,
    0x0043, 0xFFBA, 0xFF89, 0x0142, 0x01CC, 0x008E, 0xFEC8, 0x0349, 0xFD14,
    0xF801, 0xF9A6, 0xFE52, 0x0144, 0xF3EC, 0x1F40, 0x3720, 0xFE8F, 0x039C,
    0x001E, 0x000D, 0xFF82, 0xFEFF, 0x0356, 0x003A, 0xFF24, 0x02EB, 0xFF99,
    0xF9D0, 0xF740, 0xFEC3, 0x00EE, 0xF52C, 0x17A0, 0x3930, 0x03C3, 0x01A2,
    0x0051, 0xFF23, 0x011B, 0x027D, 0x00EF, 0x0047, 0xFF18, 0x0241, 0xF94F,
    0xF61C, 0xFD20, 0xFF2F, 0x0193, 0xF63E, 0x2618, 0x34F8, 0xF84C, 0x0381,
    0x0048, 0x0018, 0xFF31, 0x0044, 0x0224, 0x0154, 0xFE76, 0x0257, 0x0046,
    0xF8F1, 0xF732, 0xFD5B, 0x01F7, 0xF3A0, 0x1750, 0x3C90, 0x00B9, 0x03F7,
    0x0003, 0x004E, 0x0006, 0xFE2F, 0x024A, 0x0169, 0xFF2D, 0x00DF, 0x0234,
    0xFCD9, 0xF480, 0xFDDB, 0x0225, 0xF578, 0x0FD6, 0x3AF0, 0x0A36, 0xFFBD,
    0x006C, 0xFEF6, 0x00C6, 0x01D8, 0x01FC, 0x002C, 0xFED6, 0x0244, 0xFB20,
    0xF642, 0xFB7E, 0xFF4D, 0x0192, 0xF71C, 0x2168, 0x37D8, 0xF95C, 0x0346,
    0x005D, 0x0025, 0xFF97, 0xFF30, 0x022E, 0x0218, 0xFE38, 0x0131, 0x0249,
    0xFA5B, 0xF5B2, 0xFC99, 0x026A, 0xF538, 0x0EFE, 0x4110, 0x02FE, 0x036E,
    0xFFF0, 0x0078, 0x0034, 0xFE59, 0x00A8, 0x02B1, 0xFF41, 0xFFA4, 0x038F,
    0xFE6A, 0xF428, 0xFC91, 0x02C8, 0xF5BE, 0x0AEA, 0x3BC8, 0x0DF4, 0xFEF3,
    0x0188, 0xFE57, 0x021E, 0x033F, 0x0170, 0x00BD, 0xFEA4, 0x0128, 0xFA83,
    0xF1CE, 0xFD8A, 0xFFFF, 0x01D0, 0xF878, 0x20E0, 0x3A98, 0xF550, 0x03E4,
    0x00B5, 0x0047, 0xFFAF, 0xFF73, 0x030F, 0x0234, 0xFDDE, 0xFFC5, 0x02AD,
    0xFB81, 0xF51E, 0xFC83, 0x0218, 0xF982, 0x043D, 0x47E0, 0x02D9, 0x029E,
    0xFFFC, 0x001F, 0x00B6, 0xFE73, 0xFFC0, 0x0378, 0xFFBD, 0xFEB2, 0x0294,
    0x0089, 0xF526, 0xFAC3, 0x020A, 0xFBF3, 0xFE80, 0x4150, 0x0FC2, 0xFE79,
    0x002C, 0xFFBB, 0xFFEA, 0x000F, 0xFF8C, 0x004C, 0xFFAF, 0x019A, 0x00B2,
    0xFFE4, 0x0205, 0xFF69, 0xFFD8, 0x00D2, 0x174C, 0x2408, 0x00F6, 0x000B,
    0x0038, 0xFFB6, 0xFF6C, 0x0019, 0xFF67, 0x0039, 0xFF9B, 0x0288, 0x012E,
    0xFED4, 0x0253, 0x005B, 0xFF61, 0x00B5, 0x0B24, 0x2D60, 0x0434, 0xFF4A,
    0x001A, 0xFFD6, 0xFF40, 0xFF7E, 0xFFD2, 0x0014, 0xFFC1, 0x03B9, 0x00C9,
    0xFC24, 0x033E, 0x011C, 0xFE0C, 0x00E3, 0x0573, 0x3420, 0x04C5, 0xFF65,
    0x000E, 0xFFB2, 0x0087, 0x007B, 0xFFCC, 0x0017, 0xFFAB, 0x0108, 0xFD6C,
    0xFCD0, 0x0146, 0xFFCF, 0x009C, 0xFD6B, 0x2078, 0x2720, 0xFD3B, 0x007A,
    0x0011, 0xFFBE, 0xFFFA, 0x005E, 0xFF1E, 0x003B, 0xFF8C, 0x01BE, 0xFE3C,
    0xFCE0, 0x032E, 0xFF02, 0xFFEB, 0xFE6D, 0x17E8, 0x2BF0, 0xFF90, 0x0029,
    0x001C, 0xFFD7, 0xFF3E, 0xFF98, 0xFE9B, 0x0041, 0xFF21, 0x047B, 0xFE9B,
    0xFD99, 0x052F, 0xFF63, 0xFE1E, 0xFF8A, 0x1124, 0x2D48, 0x0192, 0x0057,
    0x0018, 0xFF62, 0x00FC, 0x0069, 0x000B, 0x0005, 0xFF5D, 0x0121, 0xFB96,
    0xFB79, 0x0009, 0x0008, 0x0121, 0xFB49, 0x2500, 0x29D8, 0xFBBA, 0x0076,
    0x0024, 0xFF54, 0x00EF, 0x0048, 0x0010, 0x0001, 0xFF28, 0x020A, 0xFB6A,
    0xFAC5, 0x0050, 0x0022, 0x015C, 0xFAB6, 0x20B8, 0x2E50, 0xFC7E, 0xFFDC,
    0x0018, 0xFFCF, 0x001E, 0x0026, 0xFE68, 0x0035, 0xFF52, 0x02AE, 0xFCF5,
    0xFBC1, 0x0494, 0xFE90, 0xFF8E, 0xFD0E, 0x17AC, 0x2EF8, 0x0052, 0xFFCA,
    0x0034, 0xFF53, 0x016F, 0x00EB, 0x0038, 0x000C, 0xFF51, 0x0109, 0xF9AF,
    0xF99B, 0xFF27, 0xFFF1, 0x0177, 0xF945, 0x2830, 0x2D10, 0xF9E8, 0x0138,
    0x0046, 0xFF1E, 0x016B, 0x0047, 0x00F5, 0xFFCB, 0xFEF0, 0x0296, 0xF9C7,
    0xF975, 0xFE48, 0x006B, 0x01C3, 0xF856, 0x2460, 0x3090, 0xFB46, 0x006A,
    0x0044, 0xFF5D, 0x011C, 0xFFEC, 0x0092, 0xFF87, 0xFED6, 0x0361, 0xFA77,
    0xF997, 0x002E, 0x0036, 0x0138, 0xF957, 0x1EA0, 0x3278, 0xFD3F, 0xFFAD,
    0x0031, 0xFF6C, 0x0159, 0x01D9, 0x002C, 0x0009, 0xFF67, 0x016D, 0xF8BE,
    0xF7D4, 0xFF1E, 0xFFC9, 0x0176, 0xF7E4, 0x28F8, 0x2FD0, 0xF861, 0x0227,
    0x0063, 0xFF35, 0x00E3, 0x00EB, 0x0199, 0xFF99, 0xFED8, 0x02C5, 0xFA7F,
    0xF7A0, 0xFCE2, 0x0066, 0x01BE, 0xF73C, 0x22E0, 0x34B8, 0xFA8E, 0x0142,
    0x0049, 0xFFAA, 0x002E, 0x0061, 0x0262, 0xFEEF, 0xFEC5, 0x0358, 0xFBA1,
    0xF764, 0xFCE9, 0x013D, 0x0199, 0xF836, 0x1D60, 0x37C0, 0xFC00, 0xFFF5,
    0x0051, 0xFF21, 0x0149, 0x02A4, 0x0020, 0x004A, 0xFF16, 0x025C, 0xF850,
    0xF6E2, 0xFE3D, 0xFF6C, 0x018A, 0xF6CA, 0x27E0, 0x32C0, 0xF7F0, 0x0309,
    0x004E, 0xFFBA, 0xFFAF, 0x017C, 0x0225, 0xFFBF, 0xFEAE, 0x02D8, 0xFC9F,
    0xF702, 0xF9EE, 0x0095, 0x01D1, 0xF676, 0x1D94, 0x39E8, 0xFBE9, 0x0195,
    0x0025, 0x002C, 0xFF5F, 0x0029, 0x035E, 0xFF04, 0xFF08, 0x0206, 0xFEF4,
    0xF6D8, 0xF92C, 0x01FC, 0x01B7, 0xF8CB, 0x1724, 0x3D28, 0xFDA9, 0xFF4C,
    0x0062, 0xFF0B, 0x0119, 0x02B7, 0x00D9, 0x001C, 0xFEFE, 0x025C, 0xF936,
    0xF5EC, 0xFCFF, 0xFFC7, 0x01A8, 0xF6DA, 0x24E8, 0x3660, 0xF790, 0x032C,
    0x0033, 0x0013, 0xFF69, 0x00A1, 0x0317, 0xFFFE, 0xFECB, 0x0185, 0xFFA0,
    0xF732, 0xF716, 0x00A2, 0x01EC, 0xF7D4, 0x15A0, 0x4030, 0xFC92, 0x019F,
    0x000A, 0x0049, 0xFFC8, 0xFEF8, 0x03D0, 0xFF70, 0xFF57, 0x0077, 0x0158,
    0xF875, 0xF610, 0x021F, 0x01BD, 0xFA64, 0x0FD2, 0x4150, 0x0016, 0xFE8A,
    0x006E, 0xFEFA, 0x00C7, 0x0213, 0x01C3, 0xFFFD, 0xFEC1, 0x023A, 0xFB03,
    0xF64A, 0xFB0A, 0x004D, 0x01AB, 0xF82F, 0x1FE4, 0x3980, 0xF888, 0x0298,
    0x002F, 0x001F, 0xFFBB, 0xFF8C, 0x036E, 0x00A0, 0xFED2, 0x0095, 0x014F,
    0xF8C5, 0xF48E, 0x00AF, 0x01BA, 0xF9F7, 0x0E12, 0x44A0, 0xFE34, 0x0109,
    0xFFFB, 0x0042, 0x0024, 0xFE4A, 0x0358, 0x005E, 0xFF97, 0xFFB2, 0x02AB,
    0xFA2E, 0xF48E, 0x012A, 0x017B, 0xFB48, 0x0A18, 0x4450, 0x01C1, 0xFED5,
    0x013F, 0xFE60, 0x0234, 0x02EC, 0x0172, 0x0070, 0xFE83, 0x0086, 0xFB1F,
    0xF200, 0xFD63, 0x0121, 0x0290, 0xF951, 0x1F04, 0x3C50, 0xF4DA, 0x02A5,
    0x0041, 0x004F, 0xFFE4, 0xFFFB, 0x034C, 0x00F6, 0xFE9D, 0xFF94, 0x01BD,
    0xFA66, 0xF37C, 0x014A, 0x0183, 0xFCA8, 0x0660, 0x4810, 0xFF23, 0x0078,
    0xFFF8, 0x0007, 0x005E, 0xFE4B, 0x0221, 0x017D, 0xFFFA, 0xFF8C, 0x020A,
    0xFDBA, 0xF37E, 0xFFBE, 0x0083, 0xFE52, 0x0144, 0x48B0, 0x02E1, 0xFF84,
    0x002B, 0xFFB2, 0xFFED, 0x0007, 0xFF7A, 0x0055, 0xFFAE, 0x0198, 0x00CD,
    0x0010, 0x0239, 0xFF6A, 0xFFE6, 0x00BE, 0x16C4, 0x24B8, 0x0075, 0x0008,
    0x0033, 0xFFA4, 0xFF77, 0x0008, 0xFF21, 0x0084, 0xFFAB, 0x0233, 0x0116,
    0xFF36, 0x0400, 0xFF7C, 0xFFAD, 0x00AD, 0x0B70, 0x2EE8, 0x0141, 0xFF69,
    0x000F, 0xFFF3, 0xFF50, 0x001D, 0xFF80, 0x0052, 0xFFE3, 0x01D3, 0x008F,
    0xFF62, 0x04D3, 0xFFBE, 0xFF5C, 0xFF9D, 0x034D, 0x37F0, 0x006C, 0xFFE3,
    0x000F, 0xFFB0, 0x008B, 0x007D, 0xFFCC, 0x001C, 0xFFAE, 0x010A, 0xFD6B,
    0xFCCC, 0x0167, 0xFFCE, 0x0095, 0xFD67, 0x2028, 0x2798, 0xFCF5, 0x0078,
    0x0013, 0xFFAF, 0x000B, 0x0056, 0xFEEB, 0x0054, 0xFFA6, 0x019D, 0xFE58,
    0xFCB9, 0x0407, 0xFEEA, 0x000A, 0xFE65, 0x1708, 0x2E20, 0xFD8C, 0x0031,
    0x000E, 0xFFD5, 0xFF4A, 0xFFB9, 0xFE7D, 0x0076, 0xFFB6, 0x02BF, 0xFF7B,
    0xFDB8, 0x0741, 0xFEA1, 0xFF24, 0xFF83, 0x0BDA, 0x3378, 0xFEE7, 0xFFB9,
    0x001B, 0xFF58, 0x0116, 0x0060, 0x001B, 0x0003, 0xFF55, 0x012D, 0xFB7E,
    0xFB73, 0x000D, 0x001E, 0x0127, 0xFB5E, 0x24C8, 0x2A20, 0xFB94, 0x005F,
    0x002F, 0xFF27, 0x0153, 0xFFEA, 0x002F, 0xFFFF, 0xFF1A, 0x0209, 0xFB58,
    0xFAB3, 0x00C3, 0x0040, 0x0188, 0xFB0A, 0x1FF8, 0x2F80, 0xFB52, 0xFFB0,
    0x001B, 0xFFAB, 0x0013, 0x0020, 0xFE4A, 0x005B, 0xFF8A, 0x0250, 0xFD71,
    0xFB92, 0x05E8, 0xFE5A, 0xFFF8, 0xFD7B, 0x14E0, 0x3340, 0xFCBE, 0xFFF5,
    0x003D, 0xFF3D, 0x0183, 0x00EF, 0x0033, 0x0005, 0xFF38, 0x012D, 0xF98B,
    0xF9AB, 0xFF39, 0x000F, 0x018F, 0xF960, 0x2800, 0x2D48, 0xF9BD, 0x010A,
    0x005A, 0xFEEC, 0x01CC, 0x0003, 0x00E9, 0xFFC1, 0xFECD, 0x0297, 0xF972,
    0xF985, 0xFED0, 0x00BE, 0x0210, 0xF8E8, 0x2420, 0x3128, 0xFA20, 0xFFF4,
    0x0059, 0xFF24, 0x014D, 0xFFD7, 0x0010, 0xFFA8, 0xFED7, 0x02EB, 0xFABB,
    0xF9AA, 0x01FA, 0x001C, 0x0190, 0xFA74, 0x1D44, 0x33E0, 0xFAC0, 0xFF80,
    0x0041, 0xFF55, 0x0162, 0x01FE, 0x0009, 0x000C, 0xFF48, 0x01A1, 0xF875,
    0xF7C8, 0xFF48, 0xFFDF, 0x0183, 0xF816, 0x28D0, 0x3030, 0xF801, 0x020D,
    0x0080, 0xFEF8, 0x0154, 0x00CE, 0x014F, 0xFF84, 0xFEBB, 0x02A8, 0xF9DE,
    0xF7D6, 0xFD9E, 0x00F1, 0x01DC, 0xF89A, 0x2230, 0x35B8, 0xF8C2, 0x00D0,
    0x006D, 0xFF66, 0x00A7, 0x00CA, 0x00DF, 0xFF54, 0xFEB4, 0x02BB, 0xFB40,
    0xF712, 0xFFEF, 0x00F1, 0x0192, 0xFA54, 0x1CFC, 0x3890, 0xF855, 0x001F,
    0x00A5, 0xFE81, 0x0198, 0x032F, 0xFF3A, 0x00A4, 0xFE81, 0x038E, 0xF74E,
    0xF670, 0xFF89, 0xFF00, 0x01BE, 0xF6A2, 0x2820, 0x3348, 0xF6D4, 0x0346,
    0x007F, 0xFF35, 0x000C, 0x01DF, 0x01DE, 0xFF2C, 0xFEBB, 0x0397, 0xFAD8,
    0xF6D2, 0xFB94, 0x0188, 0x0125, 0xF87D, 0x1D7C, 0x3AE0, 0xF8D1, 0x0170,
    0x0040, 0xFFEF, 0xFF85, 0x01A1, 0x0156, 0xFF37, 0xFF1F, 0x01CB, 0xFDAD,
    0xF520, 0xFE41, 0x0169, 0x00FB, 0xFBAD, 0x17C8, 0x3E58, 0xF776, 0x007C,
    0x00AF, 0xFE80, 0x017C, 0x0358, 0xFFC6, 0x0081, 0xFE77, 0x034C, 0xF819,
    0xF57A, 0xFE30, 0xFF87, 0x01D5, 0xF712, 0x2520, 0x3710, 0xF642, 0x0350,
    0x006C, 0xFF84, 0xFFB1, 0x019B, 0x02DE, 0xFF15, 0xFEEF, 0x0219, 0xFD7D,
    0xF62A, 0xF8CC, 0x0210, 0x00F7, 0xFA9B, 0x1618, 0x41C0, 0xF83E, 0x019C,
    0x002A, 0x0022, 0xFF6B, 0x00F5, 0x024F, 0xFF0B, 0xFF54, 0x0100, 0xFF5F,
    0xF596, 0xFB9D, 0x01EA, 0x00CC, 0xFCEA, 0x1234, 0x42E0, 0xF80A, 0x0052,
    0x0049, 0xFF0F, 0x00F0, 0x0271, 0x0139, 0xFFEC, 0xFED8, 0x022E, 0xFA6E,
    0xF670, 0xFAF5, 0x010C, 0x0186, 0xF92F, 0x1F78, 0x3A50, 0xF770, 0x024F,
    0x0051, 0xFFBC, 0xFFC9, 0x00A0, 0x0388, 0xFF7C, 0xFF1C, 0x00EE, 0xFF4A,
    0xF756, 0xF5E0, 0x029D, 0x00C6, 0xFCCD, 0x0F54, 0x4650, 0xF93B, 0x00E8,
    0x0022, 0x0018, 0xFF9E, 0x0018, 0x02D6, 0xFF44, 0xFF90, 0x008C, 0x0083,
    0xF70E, 0xF939, 0x0208, 0x007E, 0xFDD7, 0x0D10, 0x4610, 0xF955, 0x003A,
    0x0105, 0xFEA0, 0x0274, 0x0260, 0x01BB, 0x0019, 0xFE98, 0xFFE4, 0xFAC4,
    0xF2F0, 0xFDBC, 0x01A4, 0x02DD, 0xF981, 0x1F1C, 0x3C48, 0xF46E, 0x01F4,
    0x0031, 0xFFDE, 0xFFEC, 0x00C0, 0x032C, 0xFFF1, 0xFF34, 0x0010, 0x001D,
    0xF830, 0xF672, 0x02B2, 0x00F7, 0xFD5B, 0x0A8E, 0x47D0, 0xFA07, 0x00BF,
    0x001D, 0xFFFE, 0xFFB9, 0xFFD4, 0x01F9, 0x0002, 0xFFBD, 0x0059, 0x00DA,
    0xFAFF, 0xF7A6, 0x014C, 0x003E, 0xFE8B, 0x05D7, 0x47A0, 0xFCE2, 0x0053,
    0x002B, 0xFFB0, 0xFFEC, 0x000A, 0xFF67, 0x0054, 0xFFB4, 0x018D, 0x00BC,
    0x007C, 0x023A, 0xFF77, 0xFFF3, 0x00CC, 0x16C4, 0x24A8, 0x0017, 0x0008,
    0x0033, 0xFFAC, 0xFFAD, 0xFF6B, 0xFF7D, 0x0084, 0xFFA5, 0x0230, 0x00AB,
    0x0149, 0x0400, 0xFF22, 0xFF78, 0x0114, 0x0B72, 0x2ED8, 0xFF3C, 0x0009,
    0x000B, 0xFFF0, 0xFF48, 0xFFD6, 0xFF6D, 0x005E, 0xFFFA, 0x01DF, 0xFF96,
    0x0045, 0x057C, 0xFF60, 0xFF2F, 0x008D, 0x0354, 0x37F0, 0xFF54, 0x0039,
    0x000F, 0xFFAE, 0x0095, 0x0078, 0xFFCE, 0x001C, 0xFFB0, 0x010A, 0xFD67,
    0xFCF5, 0x0167, 0xFFCC, 0x008B, 0xFD6B, 0x2028, 0x2798, 0xFCCC, 0x007D,
    0x0013, 0xFFA6, 0x000A, 0x0031, 0xFEEA, 0x0054, 0xFFAF, 0x019D, 0xFE65,
    0xFD8C, 0x0407, 0xFEEB, 0x000B, 0xFE58, 0x1708, 0x2E20, 0xFCB9, 0x0056,
    0x000D, 0xFFBA, 0xFF21, 0xFFBC, 0xFE8E, 0x007E, 0xFFD7, 0x02BD, 0xFF88,
    0xFED2, 0x076C, 0xFE6F, 0xFF45, 0xFF81, 0x0BCC, 0x3390, 0xFDA5, 0xFFC1,
    0x001B, 0xFF55, 0x0127, 0x005F, 0x001E, 0x0003, 0xFF58, 0x012D, 0xFB5E,
    0xFB94, 0x000D, 0x001B, 0x0116, 0xFB7E, 0x24C8, 0x2A20, 0xFB73, 0x0060,
    0x002F, 0xFF1A, 0x0188, 0xFFB0, 0x0040, 0xFFFF, 0xFF27, 0x0209, 0xFB0A,
    0xFB52, 0x00C3, 0x002F, 0x0153, 0xFB58, 0x1FF8, 0x2F80, 0xFAB3, 0xFFEA,
    0x001B, 0xFF8B, 0xFFF6, 0xFFF8, 0xFE55, 0x005D, 0xFFAC, 0x024E, 0xFD7F,
    0xFCB8, 0x05F1, 0xFE45, 0x0011, 0xFD74, 0x14D8, 0x3348, 0xFB8C, 0x0024,
    0x003D, 0xFF38, 0x018F, 0x010A, 0x000F, 0x0005, 0xFF3D, 0x012D, 0xF960,
    0xF9BD, 0xFF39, 0x0033, 0x0183, 0xF98B, 0x2800, 0x2D48, 0xF9AB, 0x00EF,
    0x005A, 0xFECD, 0x0210, 0xFFF4, 0x00BE, 0xFFC1, 0xFEEC, 0x0297, 0xF8E8,
    0xFA20, 0xFED0, 0x00E9, 0x01CC, 0xF972, 0x2420, 0x3128, 0xF985, 0x0003,
    0x0059, 0xFED8, 0x018F, 0xFF81, 0x001A, 0xFFA9, 0xFF25, 0x02EA, 0xFA76,
    0xFABE, 0x01FC, 0x000E, 0x014C, 0xFABC, 0x1D40, 0x33E8, 0xF9A8, 0xFFD8,
    0x0041, 0xFF48, 0x0183, 0x020D, 0xFFDF, 0x000C, 0xFF55, 0x01A1, 0xF816,
    0xF801, 0xFF48, 0x0009, 0x0162, 0xF875, 0x28D0, 0x3030, 0xF7C8, 0x01FE,
    0x0080, 0xFEBB, 0x01DC, 0x00D0, 0x00F1, 0xFF84, 0xFEF8, 0x02A8, 0xF89A,
    0xF8C2, 0xFD9E, 0x014F, 0x0154, 0xF9DE, 0x2230, 0x35B8, 0xF7D6, 0x00CE,
    0x006C, 0xFEB5, 0x0191, 0x0020, 0x00F0, 0xFF54, 0xFF67, 0x02BA, 0xFA55,
    0xF853, 0xFFF1, 0x00DE, 0x00A6, 0xFB41, 0x1CFC, 0x3898, 0xF710, 0x00CB,
    0x00A5, 0xFE81, 0x01BE, 0x0346, 0xFF00, 0x00A4, 0xFE81, 0x038E, 0xF6A2,
    0xF6D4, 0xFF89, 0xFF3A, 0x0198, 0xF74E, 0x2820, 0x3348, 0xF670, 0x032F,
    0x007F, 0xFEBB, 0x0125, 0x0170, 0x0188, 0xFF2C, 0xFF35, 0x0397, 0xF87D,
    0xF8D1, 0xFB94, 0x01DE, 0x000C, 0xFAD8, 0x1D7C, 0x3AE0, 0xF6D2, 0x01DF,
    0x0040, 0xFF20, 0x00FB, 0x007E, 0x0168, 0xFF38, 0xFFEF, 0x01CB, 0xFBAE,
    0xF774, 0xFE43, 0x0155, 0xFF84, 0xFDAD, 0x17C8, 0x3E58, 0xF520, 0x01A1,
    0x00AF, 0xFE77, 0x01D5, 0x0350, 0xFF87, 0x0081, 0xFE80, 0x034C, 0xF712,
    0xF642, 0xFE30, 0xFFC6, 0x017C, 0xF819, 0x2520, 0x3710, 0xF57A, 0x0358,
    0x006C, 0xFEEF, 0x00F7, 0x019C, 0x0210, 0xFF15, 0xFF84, 0x0219, 0xFA9B,
    0xF83E, 0xF8CC, 0x02DE, 0xFFB1, 0xFD7D, 0x1618, 0x41C0, 0xF62A, 0x019B,
    0x002A, 0xFF54, 0x00CB, 0x0052, 0x01EA, 0xFF0B, 0x0022, 0x0100, 0xFCEA,
    0xF80A, 0xFB9D, 0x024F, 0xFF6B, 0xFF5F, 0x1234, 0x42E0, 0xF596, 0x00F5,
    0x0049, 0xFED8, 0x0186, 0x024F, 0x010C, 0xFFEC, 0xFF0F, 0x022E, 0xF92F,
    0xF770, 0xFAF5, 0x0139, 0x00F0, 0xFA6E, 0x1F78, 0x3A50, 0xF670, 0x0271,
    0x0051, 0xFF1C, 0x00C6, 0x00E8, 0x029D, 0xFF7C, 0xFFBC, 0x00EE, 0xFCCD,
    0xF93B, 0xF5E0, 0x0388, 0xFFC9, 0xFF4A, 0x0F54, 0x4650, 0xF756, 0x00A0,
    0x0022, 0xFF90, 0x007D, 0x003A, 0x0208, 0xFF44, 0x0018, 0x008C, 0xFDD7,
    0xF954, 0xF939, 0x02D6, 0xFF9E, 0x0083, 0x0D10, 0x4610, 0xF70E, 0x0018,
    0x0105, 0xFE98, 0x02DD, 0x01F4, 0x01A4, 0x0019, 0xFEA0, 0xFFE4, 0xF981,
    0xF46E, 0xFDBC, 0x01BB, 0x0274, 0xFAC4, 0x1F1C, 0x3C48, 0xF2F0, 0x0260,
    0x0031, 0xFF34, 0x00F7, 0x00BF, 0x02B2, 0xFFF1, 0xFFDE, 0x0010, 0xFD5B,
    0xFA07, 0xF672, 0x032C, 0xFFEC, 0x001D, 0x0A8E, 0x47D0, 0xF830, 0x00C0,
    0x001D, 0xFFBD, 0x003E, 0x0053, 0x014C, 0x0002, 0xFFFE, 0x0059, 0xFE8B,
    0xFCE2, 0xF7A6, 0x01F9, 0xFFB9, 0x00DA, 0x05D7, 0x47A0, 0xFAFF, 0xFFD4,
    0x002C, 0xFFAF, 0xFFD8, 0x000B, 0xFF69, 0x004C, 0xFFBB, 0x019A, 0x00D2,
    0x00F6, 0x0205, 0xFF8C, 0xFFEA, 0x00B2, 0x174C, 0x2408, 0xFFE4, 0x000F,
    0x0038, 0xFF9B, 0xFF61, 0xFF4A, 0x005B, 0x0039, 0xFFB6, 0x0288, 0x00B5,
    0x0434, 0x0253, 0xFF67, 0xFF6C, 0x012E, 0x0B24, 0x2D60, 0xFED4, 0x0019,
    0x001A, 0xFFC1, 0xFE0C, 0xFF65, 0x011C, 0x0014, 0xFFD6, 0x03B9, 0x00E3,
    0x04C5, 0x033E, 0xFFD2, 0xFF40, 0x00C9, 0x0573, 0x3420, 0xFC24, 0xFF7E,
    0x000E, 0xFFAB, 0x009C, 0x007A, 0xFFCF, 0x0017, 0xFFB2, 0x0108, 0xFD6B,
    0xFD3B, 0x0146, 0xFFCC, 0x0087, 0xFD6C, 0x2078, 0x2720, 0xFCD0, 0x007B,
    0x0011, 0xFF8C, 0xFFEB, 0x0029, 0xFF02, 0x003B, 0xFFBE, 0x01BE, 0xFE6D,
    0xFF90, 0x032E, 0xFF1E, 0xFFFA, 0xFE3C, 0x17E8, 0x2BF0, 0xFCE0, 0x005E,
    0x001C, 0xFF21, 0xFE1E, 0x0057, 0xFF63, 0x0041, 0xFFD7, 0x047B, 0xFF8A,
    0x0192, 0x052F, 0xFE9B, 0xFF3E, 0xFE9B, 0x1124, 0x2D48, 0xFD99, 0xFF98,
    0x0018, 0xFF5D, 0x0121, 0x0076, 0x0008, 0x0005, 0xFF62, 0x0121, 0xFB49,
    0xFBBA, 0x0009, 0x000B, 0x00FC, 0xFB96, 0x2500, 0x29D8, 0xFB79, 0x0069,
    0x0024, 0xFF28, 0x015C, 0xFFDC, 0x0022, 0x0001, 0xFF54, 0x020A, 0xFAB6,
    0xFC7E, 0x0050, 0x0010, 0x00EF, 0xFB6A, 0x20B8, 0x2E50, 0xFAC5, 0x0048,
    0x0018, 0xFF52, 0xFF8E, 0xFFCA, 0xFE90, 0x0035, 0xFFCF, 0x02AE, 0xFD0E,
    0x0052, 0x0494, 0xFE68, 0x001E, 0xFCF5, 0x17AC, 0x2EF8, 0xFBC1, 0x0026,
    0x0034, 0xFF51, 0x0177, 0x0138, 0xFFF1, 0x000C, 0xFF53, 0x0109, 0xF945,
    0xF9E8, 0xFF27, 0x0038, 0x016F, 0xF9AF, 0x2830, 0x2D10, 0xF99B, 0x00EB,
    0x0046, 0xFEF0, 0x01C3, 0x006A, 0x006B, 0xFFCB, 0xFF1E, 0x0296, 0xF856,
    0xFB46, 0xFE48, 0x00F5, 0x016B, 0xF9C7, 0x2460, 0x3090, 0xF975, 0x0047,
    0x0044, 0xFED6, 0x0138, 0xFFAD, 0x0036, 0xFF87, 0xFF5D, 0x0361, 0xF957,
    0xFD3F, 0x002E, 0x0092, 0x011C, 0xFA77, 0x1EA0, 0x3278, 0xF997, 0xFFEC,
    0x0031, 0xFF67, 0x0176, 0x0227, 0xFFC9, 0x0009, 0xFF6C, 0x016D, 0xF7E4,
    0xF861, 0xFF1E, 0x002C, 0x0159, 0xF8BE, 0x28F8, 0x2FD0, 0xF7D4, 0x01D9,
    0x0063, 0xFED8, 0x01BE, 0x0142, 0x0066, 0xFF99, 0xFF35, 0x02C5, 0xF73C,
    0xFA8E, 0xFCE2, 0x0199, 0x00E3, 0xFA7F, 0x22E0, 0x34B8, 0xF7A0, 0x00EB,
    0x0049, 0xFEC5, 0x0199, 0xFFF5, 0x013D, 0xFEEF, 0xFFAA, 0x0358, 0xF836,
    0xFC00, 0xFCE9, 0x0262, 0x002E, 0xFBA1, 0x1D60, 0x37C0, 0xF764, 0x0061,
    0x0051, 0xFF16, 0x018A, 0x0309, 0xFF6C, 0x004A, 0xFF21, 0x025C, 0xF6CA,
    0xF7F0, 0xFE3D, 0x0020, 0x0149, 0xF850, 0x27E0, 0x32C0, 0xF6E2, 0x02A4,
    0x004E, 0xFEAE, 0x01D1, 0x0195, 0x0095, 0xFFBF, 0xFFBA, 0x02D8, 0xF676,
    0xFBE9, 0xF9EE, 0x0225, 0xFFAF, 0xFC9F, 0x1D94, 0x39E8, 0xF702, 0x017C,
    0x0025, 0xFF08, 0x01B7, 0xFF4C, 0x01FC, 0xFF04, 0x002C, 0x0206, 0xF8CB,
    0xFDA9, 0xF92C, 0x035E, 0xFF5F, 0xFEF4, 0x1724, 0x3D28, 0xF6D8, 0x0029,
    0x0062, 0xFEFE, 0x01A8, 0x032C, 0xFFC7, 0x001C, 0xFF0B, 0x025C, 0xF6DA,
    0xF790, 0xFCFF, 0x00D9, 0x0119, 0xF936, 0x24E8, 0x3660, 0xF5EC, 0x02B7,
    0x0033, 0xFECB, 0x01EC, 0x019F, 0x00A2, 0xFFFE, 0x0013, 0x0185, 0xF7D4,
    0xFC92, 0xF716, 0x0317, 0xFF69, 0xFFA0, 0x15A0, 0x4030, 0xF732, 0x00A1,
    0x000A, 0xFF57, 0x01BD, 0xFE8A, 0x021F, 0xFF70, 0x0049, 0x0077, 0xFA64,
    0x0016, 0xF610, 0x03D0, 0xFFC8, 0x0158, 0x0FD2, 0x4150, 0xF875, 0xFEF8,
    0x006E, 0xFEC1, 0x01AB, 0x0298, 0x004D, 0xFFFD, 0xFEFA, 0x023A, 0xF82F,
    0xF888, 0xFB0A, 0x01C3, 0x00C7, 0xFB03, 0x1FE4, 0x3980, 0xF64A, 0x0213,
    0x002F, 0xFED2, 0x01BA, 0x0109, 0x00AF, 0x00A0, 0x001F, 0x0095, 0xF9F7,
    0xFE34, 0xF48E, 0x036E, 0xFFBB, 0x014F, 0x0E12, 0x44A0, 0xF8C5, 0xFF8C,
    0xFFFB, 0xFF97, 0x017B, 0xFED5, 0x012A, 0x005E, 0x0042, 0xFFB2, 0xFB48,
    0x01C1, 0xF48E, 0x0358, 0x0024, 0x02AB, 0x0A18, 0x4450, 0xFA2E, 0xFE4A,
    0x013F, 0xFE83, 0x0290, 0x02A5, 0x0121, 0x0070, 0xFE60, 0x0086, 0xF951,
    0xF4DA, 0xFD63, 0x0172, 0x0234, 0xFB1F, 0x1F04, 0x3C50, 0xF200, 0x02EC,
    0x0041, 0xFE9D, 0x0183, 0x0078, 0x014A, 0x00F6, 0x004F, 0xFF94, 0xFCA8,
    0xFF23, 0xF37C, 0x034C, 0xFFE4, 0x01BD, 0x0660, 0x4810, 0xFA66, 0xFFFB,
    0xFFF8, 0xFFFA, 0x0083, 0xFF84, 0xFFBE, 0x017D, 0x0007, 0xFF8C, 0xFE52,
    0x02E1, 0xF37E, 0x0221, 0x005E, 0x020A, 0x0144, 0x48B0, 0xFDBA, 0xFE4B,
    0x0027, 0xFFAB, 0x0004, 0x0011, 0xFF78, 0x0043, 0xFFB9, 0x018F, 0x00E8,
    0x01CB, 0x01CC, 0xFF9C, 0xFFE1, 0x00A1, 0x17DC, 0x22A8, 0xFFCD, 0x0025,
    0x0036, 0xFF91, 0xFF3E, 0xFF74, 0x0039, 0x0022, 0xFFAB, 0x02A0, 0x00B5,
    0x09C2, 0x0059, 0xFFC7, 0xFFBC, 0x0158, 0x0AC6, 0x2920, 0xFF81, 0xFFD1,
    0x0016, 0xFFD5, 0xFE80, 0x0051, 0xFFB1, 0x0011, 0xFFC2, 0x0325, 0xFF5F,
    0x0FF2, 0x0339, 0xFF6A, 0xFFBB, 0xFF80, 0x053D, 0x2AD8, 0xFD2B, 0x002F,
    0x000D, 0xFFAE, 0x009A, 0x0082, 0xFFCD, 0x0015, 0xFFB5, 0x0106, 0xFD82,
    0xFD8E, 0x0121, 0xFFCB, 0x0077, 0xFD6A, 0x20F0, 0x2658, 0xFCEA, 0x007D,
    0x000F, 0xFF6E, 0xFFBD, 0x0045, 0xFF07, 0x0028, 0xFFD4, 0x01C0, 0xFEE2,
    0x01E4, 0x0232, 0xFF48, 0xFFF7, 0xFE3A, 0x189C, 0x28E8, 0xFD82, 0x004A,
    0x001B, 0xFF0B, 0xFDAA, 0x0152, 0xFF84, 0x0026, 0xFFD4, 0x03E0, 0xFFF6,
    0x08F0, 0x03B7, 0xFE78, 0xFFC0, 0xFE8B, 0x1210, 0x24B8, 0xFE7F, 0xFFDB,
    0x0016, 0xFF65, 0x010D, 0x009C, 0xFFF5, 0x0007, 0xFF6F, 0x010A, 0xFB5A,
    0xFBD3, 0x0005, 0xFFFB, 0x00DB, 0xFBA8, 0x2558, 0x2960, 0xFB80, 0x007B,
    0x0018, 0xFF38, 0x00F4, 0x0041, 0xFFE4, 0x0008, 0xFF89, 0x01EE, 0xFAEE,
    0xFD8A, 0xFFF8, 0xFFF6, 0x0098, 0xFB8F, 0x2148, 0x2CC0, 0xFB03, 0x0084,
    0x000C, 0xFF26, 0xFEEB, 0x004A, 0xFEE6, 0x002A, 0x0017, 0x028A, 0xFD62,
    0x040A, 0x020A, 0xFEA5, 0xFFE0, 0xFD09, 0x18B4, 0x2B40, 0xFC78, 0x0078,
    0x002D, 0xFF60, 0x0158, 0x016D, 0xFFCE, 0x0008, 0xFF6C, 0x00F2, 0xF932,
    0xFA21, 0xFF1E, 0x0041, 0x014F, 0xF9C8, 0x2878, 0x2CA0, 0xF9AA, 0x00F2,
    0x0032, 0xFF26, 0x0116, 0x0138, 0xFFE3, 0xFFE1, 0xFF43, 0x0294, 0xF845,
    0xFC4E, 0xFDD9, 0x00F3, 0x0117, 0xFA0D, 0x2498, 0x2F78, 0xF9C0, 0x0072,
    0x0024, 0xFE96, 0x000A, 0x0144, 0x0010, 0xFFA5, 0xFFDB, 0x046B, 0xF96E,
    0xFEEC, 0xFD4F, 0x00D7, 0x0041, 0xF9AF, 0x1DE0, 0x31F0, 0xFB4F, 0x0073,
    0x0026, 0xFF88, 0x015B, 0x0246, 0xFFA2, 0x000C, 0xFF7D, 0x0142, 0xF7C0,
    0xF8C0, 0xFF1A, 0x0038, 0x014E, 0xF8E3, 0x2978, 0x2F20, 0xF7EA, 0x01C6,
    0x0049, 0xFF2E, 0x00F9, 0x027E, 0xFF43, 0xFFE2, 0xFF3D, 0x02E8, 0xF614,
    0xFC6C, 0xFC68, 0x01A1, 0x00AB, 0xFAF0, 0x23D0, 0x32E8, 0xF806, 0x00EB,
    0x002D, 0xFF1D, 0x0007, 0x022D, 0xFFB4, 0xFF5A, 0xFFB6, 0x0449, 0xF6F0,
    0xFF05, 0xFAA2, 0x02F0, 0xFFB8, 0xFBC1, 0x1D28, 0x3620, 0xF921, 0x000C,
    0x0038, 0xFF41, 0x016D, 0x0334, 0xFF2E, 0x0049, 0xFF4E, 0x0213, 0xF686,
    0xF873, 0xFE3D, 0x004F, 0x013D, 0xF899, 0x2878, 0x31D0, 0xF702, 0x0267,
    0x0043, 0xFEC8, 0x0144, 0x039C, 0xFE52, 0x008E, 0xFFBA, 0x0349, 0xF3EC,
    0xFE8F, 0xF9A6, 0x01CC, 0xFF89, 0xFD14, 0x1F40, 0x3720, 0xF801, 0x0142,
    0x001E, 0xFF24, 0x00EE, 0x01A2, 0xFEC3, 0x003A, 0x000D, 0x02EB, 0xF52C,
    0x03C3, 0xF740, 0x0356, 0xFF82, 0xFF99, 0x17A0, 0x3930, 0xF9D0, 0xFEFF,
    0x0051, 0xFF18, 0x0193, 0x0381, 0xFF2F, 0x0047, 0xFF23, 0x0241, 0xF63E,
    0xF84C, 0xFD20, 0x00EF, 0x011B, 0xF94F, 0x2618, 0x34F8, 0xF61C, 0x027D,
    0x0048, 0xFE76, 0x01F7, 0x03F7, 0xFD5B, 0x0154, 0x0018, 0x0257, 0xF3A0,
    0x00B9, 0xF732, 0x0224, 0xFF31, 0x0046, 0x1750, 0x3C90, 0xF8F1, 0x0044,
    0x0003, 0xFF2D, 0x0225, 0xFFBD, 0xFDDB, 0x0169, 0x004E, 0x00DF, 0xF578,
    0x0A36, 0xF480, 0x024A, 0x0006, 0x0234, 0x0FD6, 0x3AF0, 0xFCD9, 0xFE2F,
    0x006C, 0xFED6, 0x0192, 0x0346, 0xFF4D, 0x002C, 0xFEF6, 0x0244, 0xF71C,
    0xF95C, 0xFB7E, 0x01FC, 0x00C6, 0xFB20, 0x2168, 0x37D8, 0xF642, 0x01D8,
    0x005D, 0xFE38, 0x026A, 0x036E, 0xFC99, 0x0218, 0x0025, 0x0131, 0xF538,
    0x02FE, 0xF5B2, 0x022E, 0xFF97, 0x0249, 0x0EFE, 0x4110, 0xFA5B, 0xFF30,
    0xFFF0, 0xFF41, 0x02C8, 0xFEF3, 0xFC91, 0x02B1, 0x0078, 0xFFA4, 0xF5BE,
    0x0DF4, 0xF428, 0x00A8, 0x0034, 0x038F, 0x0AEA, 0x3BC8, 0xFE6A, 0xFE59,
    0x0188, 0xFEA4, 0x01D0, 0x03E4, 0xFFFF, 0x00BD, 0xFE57, 0x0128, 0xF878,
    0xF550, 0xFD8A, 0x0170, 0x021E, 0xFA83, 0x20E0, 0x3A98, 0xF1CE, 0x033F,
    0x00B5, 0xFDDE, 0x0218, 0x029E, 0xFC83, 0x0234, 0x0047, 0xFFC5, 0xF982,
    0x02D9, 0xF51E, 0x030F, 0xFFAF, 0x02AD, 0x043D, 0x47E0, 0xFB81, 0xFF73,
    0xFFFC, 0xFFBD, 0x020A, 0xFE79, 0xFAC3, 0x0378, 0x001F, 0xFEB2, 0xFBF3,
    0x0FC2, 0xF526, 0xFFC0, 0x00B6, 0x0294, 0xFE80, 0x4150, 0x0089, 0xFE73,
    0x0029, 0xFF90, 0x001C, 0x0044, 0xFF53, 0x0038, 0xFFBD, 0x0187, 0x010D,
    0x0228, 0x0198, 0xFFAF, 0xFFFC, 0x00A9, 0x1900, 0x20D8, 0x0008, 0x0016,
    0x0034, 0xFF54, 0xFF5D, 0x0118, 0xFDD9, 0x003B, 0xFFE2, 0x020E, 0x00D3,
    0x10C4, 0xFFE4, 0xFFAA, 0x0013, 0x01CA, 0x0A88, 0x21B8, 0x00F2, 0xFFCC,
    0x0008, 0xFF7E, 0xFE6B, 0x0259, 0xFF1B, 0x0003, 0x000B, 0x031C, 0x006C,
    0x1D34, 0xFF8B, 0xFFAB, 0xFFD6, 0x004C, 0x052E, 0x1B40, 0x0051, 0xFFB7,
    0x000C, 0xFFAA, 0x009A, 0x0093, 0xFFC6, 0x0010, 0xFFC1, 0x00FE, 0xFDA1,
    0xFDC6, 0x0101, 0xFFCE, 0x0071, 0xFD6C, 0x2170, 0x2580, 0xFD0C, 0x007A,
    0x000D, 0xFF43, 0xFFD1, 0x008C, 0xFEE0, 0x001C, 0xFFE2, 0x016D, 0xFFCF,
    0x037F, 0x0176, 0xFF71, 0x0002, 0xFE77, 0x1980, 0x2550, 0xFE5B, 0x002F,
    0x0016, 0xFEA9, 0xFE4F, 0x0218, 0xFE33, 0x0015, 0xFFE5, 0x02A7, 0x0114,
    0x113C, 0x025E, 0xFEC4, 0x001C, 0xFFA3, 0x10DC, 0x1BD0, 0x0075, 0xFFB8,
    0x0011, 0xFF71, 0x0105, 0x00BD, 0xFFD7, 0x0006, 0xFF84, 0x00E7, 0xFB6A,
    0xFBF7, 0x0011, 0xFFEF, 0x00C1, 0xFBBA, 0x25C0, 0x28C0, 0xFB8D, 0x0088,
    0x000D, 0xFF38, 0x00A2, 0x00B0, 0xFFA6, 0x000D, 0xFFB7, 0x01AA, 0xFB99,
    0xFE40, 0xFFB8, 0xFFE2, 0x0061, 0xFBC5, 0x21F0, 0x2AB8, 0xFB81, 0x0097,
    0xFFFF, 0xFEC5, 0xFE7A, 0x013A, 0xFEC0, 0x002D, 0x0067, 0x0239, 0xFEA8,
    0x0673, 0xFFC8, 0xFED6, 0xFF88, 0xFD23, 0x198C, 0x2760, 0xFDEA, 0x00C2,
    0x0024, 0xFF77, 0x0148, 0x018D, 0xFFAF, 0x000F, 0xFF84, 0x00BD, 0xF94E,
    0xFA2E, 0xFF35, 0x002E, 0x0138, 0xF9E5, 0x28D0, 0x2C08, 0xF9C6, 0x00F3,
    0x0021, 0xFF62, 0x006A, 0x01F0, 0xFF70, 0xFFF1, 0xFF6A, 0x0237, 0xF8DE,
    0xFCE3, 0xFDE3, 0x00B5, 0x00C8, 0xFA6B, 0x2518, 0x2D90, 0xFA4E, 0x009E,
    0xFFFA, 0xFE4D, 0xFECA, 0x02F8, 0x0001, 0x0008, 0x007E, 0x050B, 0xFAAC,
    0xFFAD, 0xFAFF, 0xFFD8, 0xFEF5, 0xF8D6, 0x1DF0, 0x2FC8, 0xFDBD, 0x01F1,
    0x001F, 0xFF98, 0x015A, 0x0254, 0xFF89, 0x000F, 0xFF8C, 0x011C, 0xF7B8,
    0xF8DE, 0xFF45, 0x002D, 0x014D, 0xF8F1, 0x29F0, 0x2E60, 0xF811, 0x01B0,
    0x0036, 0xFF98, 0xFFF8, 0x03C8, 0xFE56, 0x0005, 0xFF3A, 0x02BC, 0xF5FC,
    0xFD2B, 0xFCBC, 0x0160, 0x00AF, 0xFAF1, 0x2550, 0x3050, 0xF8B1, 0x00EC,
    0x0019, 0xFF7F, 0xFE2D, 0x054B, 0xFD62, 0xFFFF, 0xFFC6, 0x044B, 0xF658,
    0x014A, 0xFA3D, 0x021F, 0xFF51, 0xFC2A, 0x1EB4, 0x31D0, 0xFB08, 0x007B,
    0x0029, 0xFF67, 0x0148, 0x0338, 0xFF10, 0x003A, 0xFF6A, 0x01D4, 0xF69E,
    0xF88F, 0xFEC2, 0x0048, 0x0149, 0xF8A6, 0x2960, 0x3088, 0xF728, 0x022D,
    0x004C, 0xFF23, 0x0020, 0x057C, 0xFCDB, 0x00C8, 0xFF62, 0x03AA, 0xF300,
    0xFEC2, 0xFB16, 0x014B, 0xFFE1, 0xFC78, 0x2250, 0x33B8, 0xF889, 0x013A,
    0x0021, 0xFF79, 0xFEED, 0x06E0, 0xF9B5, 0x018B, 0xFFDE, 0x0330, 0xF236,
    0x06F4, 0xF99A, 0x016B, 0xFF8C, 0x0055, 0x1B04, 0x31E0, 0xFC3B, 0xFF1A,
    0x0049, 0xFF33, 0x0192, 0x03AB, 0xFEC6, 0x0067, 0xFF46, 0x01E1, 0xF60C,
    0xF858, 0xFDDF, 0x00A8, 0x012D, 0xF937, 0x27C0, 0x3338, 0xF63E, 0x026F,
    0x007A, 0xFE82, 0x0125, 0x0671, 0xFB03, 0x01E9, 0xFFA3, 0x038E, 0xF0B2,
    0x00FF, 0xF9E7, 0x010E, 0xFF3C, 0xFF55, 0x1C74, 0x37F8, 0xF8E1, 0x00CF,
    0x0012, 0xFF09, 0x0108, 0x0687, 0xF6AC, 0x0322, 0x003F, 0x01D9, 0xEFC0,
    0x0E5A, 0xF948, 0xFF58, 0xFFCC, 0x0285, 0x13EC, 0x31E8, 0xFFCF, 0xFEC3,
    0x004D, 0xFF0B, 0x0172, 0x03A1, 0xFEA9, 0x0074, 0xFF32, 0x01E6, 0xF6BA,
    0xF97C, 0xFC75, 0x0185, 0x00D9, 0xFACD, 0x23B0, 0x3590, 0xF65A, 0x01F0,
    0x00D5, 0xFDDB, 0x022F, 0x05EB, 0xF9EF, 0x02BB, 0xFF82, 0x02F3, 0xF0BA,
    0x030D, 0xF97A, 0x014B, 0xFF66, 0x0197, 0x1544, 0x3C70, 0xF905, 0xFFD7,
    0x000D, 0xFEB6, 0x0304, 0x059F, 0xF500, 0x048B, 0x0083, 0x00D9, 0xEDF0,
    0x12A4, 0xFA0F, 0xFD82, 0xFFEB, 0x03A8, 0x0FA2, 0x3260, 0x00F3, 0xFF0A,
    0x0192, 0xFE4D, 0x01F9, 0x0476, 0xFF3D, 0x00C7, 0xFEA3, 0x01BD, 0xF70E,
    0xF5EC, 0xFE1E, 0x0183, 0x023B, 0xF971, 0x2450, 0x3780, 0xF1F4, 0x0341,
    0x012F, 0xFD20, 0x030B, 0x0389, 0xF980, 0x02FC, 0xFFD3, 0x0176, 0xF44C,
    0x0308, 0xFB0A, 0x0310, 0xFF5D, 0x0214, 0x0A40, 0x4490, 0xF776, 0x003B,
    0x003C, 0xFE41, 0x051B, 0x01A1, 0xF40C, 0x05A4, 0x0076, 0xFFAE, 0xF190,
    0x1A1C, 0xFBB1, 0xFCD3, 0x001C, 0x03A6, 0x0418, 0x34B0, 0x00F5, 0xFF44,
    0x0029, 0xFF76, 0x001E, 0x0062, 0xFF44, 0x0033, 0xFFC1, 0x0190, 0x014F,
    0x0241, 0x0177, 0xFFC5, 0xFFFF, 0x00A5, 0x1A60, 0x1EF8, 0x0031, 0x001C,
    0x002A, 0xFEE8, 0x004B, 0x03B7, 0xFD94, 0x0030, 0x0003, 0x0158, 0x00C8,
    0x0D9A, 0x0017, 0xFF94, 0x0030, 0x0232, 0x0E7C, 0x1CD4, 0x0227, 0xFFE5,
    0x0006, 0xFF7F, 0xFE99, 0x0F32, 0xFCA2, 0xFFFF, 0x000E, 0x00BF, 0xFFFC,
    0x1550, 0x00EE, 0xFF23, 0x0073, 0x0132, 0x0886, 0x1194, 0x03B0, 0x0078,
    0x000A, 0xFFAC, 0x009B, 0x009F, 0xFFBD, 0x000F, 0xFFC2, 0x00FA, 0xFDC2,
    0xFDEA, 0x00F3, 0xFFCD, 0x0069, 0xFD6B, 0x2218, 0x2488, 0xFD36, 0x0074,
    0x000A, 0xFF13, 0x002A, 0x00F6, 0xFED2, 0x0011, 0xFFEA, 0x00F7, 0x00F7,
    0x0374, 0x00EF, 0xFFA5, 0x0011, 0xFEE6, 0x1B1C, 0x21E8, 0xFEE7, 0x0022,
    0x000B, 0xFE44, 0xFF0A, 0x071B, 0xFCF1, 0x0007, 0xFFD4, 0x0179, 0x02D9,
    0x0BCC, 0x00CC, 0xFF1A, 0x0026, 0x01A4, 0x129C, 0x185C, 0x01F1, 0x000B,
    0x000E, 0xFF7F, 0x00F8, 0x00E6, 0xFFB2, 0x0008, 0xFFA1, 0x00B8, 0xFB92,
    0xFBF2, 0x0031, 0xFFDC, 0x00A7, 0xFBC7, 0x2638, 0x2810, 0xFBA8, 0x0090,
    0x0008, 0xFF31, 0x0092, 0x0104, 0xFF5F, 0x0009, 0xFFD2, 0x012A, 0xFC9F,
    0xFE89, 0xFFCE, 0xFFE2, 0x0049, 0xFC14, 0x22D8, 0x2848, 0xFBE6, 0x008E,
    0xFFFE, 0xFE83, 0xFEE0, 0x0241, 0xFE42, 0x0019, 0x004A, 0x010B, 0x0082,
    0x05DB, 0xFEEF, 0xFF4E, 0xFFC8, 0xFE07, 0x1B98, 0x2370, 0xFEAE, 0x0088,
    0x0020, 0xFF89, 0x014B, 0x018E, 0xFFA0, 0x0012, 0xFFA0, 0x006E, 0xF98A,
    0xFA2D, 0xFF6C, 0x000A, 0x011D, 0xFA00, 0x2950, 0x2B40, 0xF9E8, 0x0102,
    0x0015, 0xFF7C, 0x003B, 0x021E, 0xFF2E, 0xFFF7, 0xFF99, 0x0160, 0xFA13,
    0xFCFF, 0xFE82, 0x0060, 0x00A2, 0xFAE6, 0x25F0, 0x2B10, 0xFADC, 0x00A0,
    0xFFF5, 0xFEEC, 0xFE76, 0x0379, 0xFECD, 0x000A, 0x003C, 0x02C5, 0xFC4A,
    0x00FC, 0xFCAF, 0xFFBA, 0xFF8F, 0xFAD3, 0x2028, 0x2A70, 0xFD3E, 0x016D,
    0x0018, 0xFFBB, 0x015C, 0x0239, 0xFF8B, 0x0016, 0xFF9C, 0x00D8, 0xF7EC,
    0xF8C2, 0xFFA4, 0x0009, 0x015B, 0xF8E6, 0x2AA0, 0x2D68, 0xF853, 0x018D,
    0x001A, 0xFFEB, 0xFF9E, 0x03BB, 0xFE70, 0xFFF8, 0xFF6B, 0x01DF, 0xF744,
    0xFC9F, 0xFDCD, 0x00D3, 0x00C8, 0xFAAB, 0x2728, 0x2D88, 0xF94A, 0x00FC,
    0x0016, 0x0067, 0xFBE2, 0x0820, 0xFBE7, 0xFFD0, 0xFF89, 0x0358, 0xF6FC,
    0x01F1, 0xFC16, 0x012E, 0xFFB8, 0xFCEA, 0x2180, 0x2C60, 0xFB73, 0x00C5,
    0xFFF5, 0xFFCA, 0x010F, 0x0293, 0xFF6E, 0xFFFE, 0xFFA7, 0x0197, 0xF744,
    0xF89D, 0xFFB2, 0x003C, 0x0139, 0xF89F, 0x2A40, 0x2EB8, 0xF794, 0x01C5,
    0x001F, 0xFFC6, 0xFF90, 0x04E8, 0xFD9A, 0x004F, 0xFF58, 0x0310, 0xF486,
    0xFD3D, 0xFD0A, 0x00E2, 0x0064, 0xFB45, 0x25E0, 0x3050, 0xF872, 0x0157,
    0x0031, 0x0092, 0xFA2C, 0x0D04, 0xF7BE, 0x0124, 0xFF63, 0x0473, 0xF1EE,
    0x052C, 0xFB94, 0x00A4, 0xFF97, 0xFF6D, 0x1EE0, 0x2D30, 0xFD30, 0xFFC3,
    0x003B, 0xFF3E, 0x01A8, 0x0394, 0xFE9D, 0x006B, 0xFF77, 0x016F, 0xF640,
    0xF818, 0xFEBF, 0x005C, 0x015E, 0xF8C6, 0x29B0, 0x3118, 0xF6BC, 0x023C,
    0x003B, 0xFF50, 0x0096, 0x05A8, 0xFC26, 0x0147, 0xFF61, 0x03A5, 0xF152,
    0xFF10, 0xFC0D, 0x00AC, 0xFFBF, 0xFD3B, 0x2290, 0x33B0, 0xF7E2, 0x018E,
    0x004B, 0xFFFC, 0xFB9E, 0x0F02, 0xF392, 0x0342, 0xFF8D, 0x0458, 0xED04,
    0x0AD0, 0xFC6A, 0xFE96, 0xFF98, 0x01DD, 0x19C4, 0x2D50, 0xFFE2, 0xFF23,
    0x001E, 0xFF31, 0x019E, 0x0385, 0xFE73, 0x0090, 0xFF94, 0x0141, 0xF6BC,
    0xF929, 0xFD92, 0x00ED, 0x0103, 0xFA34, 0x26A0, 0x32A0, 0xF6E2, 0x01F9,
    0x0082, 0xFE94, 0x01E7, 0x04D0, 0xFB58, 0x0234, 0xFEFD, 0x03F4, 0xF006,
    0x0171, 0xFB47, 0x00FD, 0xFF9D, 0xFF3C, 0x1DA0, 0x3738, 0xF726, 0x0128,
    0x006A, 0xFF5C, 0xFED3, 0x0DF4, 0xF20A, 0x0526, 0xFFB5, 0x03C1, 0xE880,
    0x0E20, 0xFD2D, 0xFCE6, 0xFF5A, 0x0410, 0x1514, 0x30E0, 0xFF81, 0xFF3B,
    0x011D, 0xFDDE, 0x02A0, 0x0450, 0xFEE3, 0x007A, 0xFF47, 0x0268, 0xF5B6,
    0xF6EA, 0xFEEA, 0x0151, 0x0212, 0xF7DE, 0x2860, 0x33C0, 0xF2BC, 0x0361,
    0x0166, 0xFD02, 0x0465, 0x0112, 0xFAEE, 0x02DE, 0xFE9F, 0x0287, 0xF14E,
    0x0525, 0xFBE2, 0x02DE, 0x0118, 0xFE92, 0x1640, 0x3BA0, 0xF53E, 0x0134,
    0x00B5, 0xFD58, 0x04BC, 0x0536, 0xF348, 0x071C, 0xFFAA, 0x0391, 0xE4B0,
    0x1B58, 0xFD47, 0xFC36, 0xFED6, 0x065C, 0x0775, 0x3710, 0xFD94, 0xFF91,
    0x002D, 0xFF63, 0x0037, 0x0061, 0xFF48, 0x002F, 0xFFBF, 0x017C, 0x01AE,
    0x0207, 0x017C, 0xFFC3, 0x0003, 0x0094, 0x1BD8, 0x1D48, 0x005E, 0x001C,
    0x001D, 0xFEFB, 0x014E, 0x02FE, 0xFE4E, 0x001C, 0xFFC8, 0x0199, 0x027F,
    0x0735, 0x0127, 0xFFAB, 0x001F, 0x022D, 0x13B8, 0x1A08, 0x0222, 0x001C,
    0x0012, 0xFEA8, 0xFF09, 0x1294, 0xFF44, 0xFFFD, 0x004E, 0xFEDE, 0xFF1F,
    0x1348, 0xFE0F, 0xFF31, 0x009B, 0x0504, 0x0591, 0x0F14, 0x06F3, 0x005F,
    0x000C, 0xFFA8, 0x00A2, 0x00A5, 0xFFB2, 0x000C, 0xFFC8, 0x00F6, 0xFDE5,
    0xFDF5, 0x00EB, 0xFFCE, 0x006D, 0xFD65, 0x22C8, 0x2398, 0xFD52, 0x006E,
    0x0009, 0xFEE4, 0x00A9, 0x00FA, 0xFED9, 0x000A, 0xFFE2, 0x00A8, 0x0203,
    0x02F1, 0x009A, 0xFFCC, 0x001F, 0xFF30, 0x1CF0, 0x1F14, 0xFF36, 0x0020,
    0x0003, 0xFDF3, 0x024A, 0x06A1, 0xFD81, 0x0001, 0xFFD2, 0xFFEE, 0x0364,
    0x06EE, 0xFFF9, 0xFF95, 0x003F, 0x0270, 0x1540, 0x1730, 0x029A, 0x0044,
    0x000C, 0xFF81, 0x00FC, 0x00EF, 0xFF95, 0x000A, 0xFFB4, 0x008A, 0xFBCA,
    0xFBE9, 0x005F, 0xFFC8, 0x009C, 0xFBC5, 0x26C0, 0x2760, 0xFBBB, 0x0094,
    0x0005, 0xFF19, 0x00D3, 0x0112, 0xFF28, 0x0006, 0xFFDD, 0x0099, 0xFDA7,
    0xFE5E, 0x001F, 0xFFE1, 0x005B, 0xFC4E, 0x2418, 0x25E0, 0xFC36, 0x0074,
    0x0001, 0xFE2A, 0x0092, 0x024F, 0xFDE9, 0x0003, 0x000F, 0xFFA2, 0x02D4,
    0x04FC, 0xFED6, 0xFFD4, 0x0021, 0xFEEF, 0x1CFC, 0x1F84, 0xFF12, 0x003B,
    0x0018, 0xFF9E, 0x015B, 0x017A, 0xFF9B, 0x0016, 0xFFC3, 0x0011, 0xF9C9,
    0xFA11, 0xFFB2, 0xFFE9, 0x010D, 0xFA06, 0x29E0, 0x2A80, 0xFA08, 0x0106,
    0x0008, 0xFF54, 0x00C2, 0x01AA, 0xFF1E, 0xFFFF, 0xFFD9, 0x0052, 0xFB8F,
    0xFCA9, 0xFF5D, 0x0016, 0x008D, 0xFB51, 0x26F8, 0x2898, 0xFB48, 0x0090,
    0xFFFA, 0xFEC2, 0x0034, 0x02D0, 0xFDF6, 0xFFF8, 0x000E, 0xFFE3, 0xFF0E,
    0x0108, 0xFEC1, 0xFFFC, 0x004D, 0xFCFF, 0x2200, 0x24B0, 0xFD11, 0x007F,
    0x0010, 0xFFD2, 0x0182, 0x01DF, 0xFFBC, 0x0008, 0xFFBB, 0x0076, 0xF84E,
    0xF894, 0x0021, 0xFFF2, 0x0161, 0xF8E8, 0x2B58, 0x2C40, 0xF895, 0x0156,
    0xFFFF, 0xFFC9, 0x007E, 0x0271, 0xFF15, 0xFFF5, 0xFFCE, 0x0068, 0xF973,
    0xFB6B, 0xFEF3, 0x0048, 0x00D9, 0xFA72, 0x28D8, 0x2AD0, 0xFA1B, 0x00DF,
    0xFFF8, 0xFFBC, 0xFDD5, 0x061F, 0xFCA6, 0xFFE5, 0xFFF7, 0x00A0, 0xFBCE,
    0x006E, 0xFE05, 0x003B, 0x0056, 0xFCFD, 0x2390, 0x2688, 0xFCC4, 0x008B,
    0xFF7A, 0x009C, 0x0035, 0x00F0, 0x0068, 0xFF72, 0xFFFF, 0x024F, 0xF8A8,
    0xF8F9, 0x01D0, 0x0038, 0x00BD, 0xF8AE, 0x2A78, 0x2BF0, 0xF838, 0x00EA,
    0xFFE1, 0xFFF6, 0x0019, 0x02C2, 0xFEF0, 0xFFE5, 0xFFD0, 0x0198, 0xF7E2,
    0xFB3D, 0xFF66, 0x0067, 0x00BA, 0xFA1E, 0x28C8, 0x2C78, 0xF90E, 0x0103,
    0xFFFC, 0x00C7, 0xF9D7, 0x0BAA, 0xFA0E, 0x0015, 0xFFDF, 0x025B, 0xF752,
    0x0209, 0xFCE7, 0x0045, 0x0039, 0xFD98, 0x2368, 0x2838, 0xFCD4, 0x0099,
    0xFFFF, 0xFF85, 0x01D1, 0x02B4, 0xFF28, 0x0019, 0xFFD4, 0x00E7, 0xF6EC,
    0xF7AA, 0xFFF0, 0x0028, 0x017A, 0xF84D, 0x2BC8, 0x2E68, 0xF78C, 0x01C3,
    0xFFEB, 0xFFBF, 0x00E3, 0x038C, 0xFE4D, 0x0045, 0xFFC9, 0x0174, 0xF598,
    0xFB94, 0xFE49, 0x0063, 0x00AB, 0xFAF6, 0x2838, 0x2E48, 0xF8D8, 0x0148,
    0x0013, 0x017C, 0xF6D2, 0x1178, 0xF5E0, 0x0168, 0xFFB1, 0x048A, 0xF036,
    0x069E, 0xFC15, 0xFF91, 0xFFFD, 0xFF8E, 0x2140, 0x29E8, 0xFD1E, 0x005A,
    0x0028, 0xFF47, 0x01E7, 0x02E3, 0xFED1, 0x006D, 0xFFE3, 0x0021, 0xF774,
    0xF856, 0xFED8, 0x0060, 0x015F, 0xF955, 0x2A80, 0x2EA0, 0xF800, 0x01B0,
    0x003E, 0xFF04, 0x01C2, 0x038C, 0xFD4A, 0x012C, 0xFF8A, 0x0169, 0xF49C,
    0xFD0F, 0xFD3D, 0x007E, 0x0089, 0xFC59, 0x2638, 0x2FB8, 0xF88C, 0x0143,
    0x0028, 0x01B4, 0xF7AA, 0x1298, 0xF372, 0x0399, 0xFF38, 0x05E2, 0xE998,
    0x0A8E, 0xFAAA, 0xFEE6, 0xFFAD, 0x01CB, 0x1DE0, 0x2E50, 0xFC5F, 0x0003,
    0x0117, 0xFE05, 0x02DA, 0x0387, 0xFEBE, 0x005F, 0xFEFA, 0x029D, 0xF5BA,
    0xF658, 0x00DC, 0x005A, 0x02EE, 0xF59E, 0x2C98, 0x2FF0, 0xF406, 0x036C,
    0x00F3, 0xFE35, 0x029D, 0x00DA, 0xFD5B, 0x01F0, 0x0003, 0xFFD3, 0xF724,
    0x029B, 0xFBED, 0x0164, 0x01FD, 0xF9A1, 0x22C0, 0x2F18, 0xF70C, 0x02B3,
    0xFEF0, 0x01C2, 0xFB95, 0x07D8, 0xF8BC, 0x04EC, 0xFF92, 0x04CC, 0xE5F4,
    0x1BA4, 0xF282, 0x0108, 0xFEDF, 0x0752, 0x0F5E, 0x36A8, 0xF7EC, 0x0095,
    0x002F, 0xFF48, 0x0061, 0x0037, 0xFF63, 0x002D, 0xFFC3, 0x017C, 0x0207,
    0x01AE, 0x017C, 0xFFBF, 0x001C, 0x005E, 0x1D48, 0x1BD8, 0x0094, 0x0003,
    0x001C, 0xFE4E, 0x02FE, 0x014E, 0xFEFB, 0x001D, 0xFFAB, 0x0127, 0x0735,
    0x027F, 0x0199, 0xFFC8, 0x001C, 0x0222, 0x1A08, 0x13B8, 0x022D, 0x001F,
    0xFFFD, 0xFF44, 0x1294, 0xFF09, 0xFEA8, 0x0012, 0xFF31, 0xFE0F, 0x1348,
    0xFF1F, 0xFEDE, 0x004E, 0x005F, 0x06F3, 0x0F14, 0x0591, 0x0504, 0x009B,
    0x000C, 0xFFB2, 0x00A5, 0x00A2, 0xFFA8, 0x000C, 0xFFCE, 0x00EB, 0xFDF5,
    0xFDE5, 0x00F6, 0xFFC8, 0x006E, 0xFD52, 0x2398, 0x22C8, 0xFD65, 0x006D,
    0x000A, 0xFED9, 0x00FA, 0x00A9, 0xFEE4, 0x0009, 0xFFCC, 0x009A, 0x02F1,
    0x0203, 0x00A8, 0xFFE2, 0x0020, 0xFF36, 0x1F14, 0x1CF0, 0xFF30, 0x001F,
    0x0001, 0xFD81, 0x06A1, 0x024A, 0xFDF3, 0x0003, 0xFF95, 0xFFF9, 0x06EE,
    0x0364, 0xFFEE, 0xFFD2, 0x0044, 0x029A, 0x1730, 0x1540, 0x0270, 0x003F,
    0x000A, 0xFF95, 0x00EF, 0x00FC, 0xFF81, 0x000C, 0xFFC8, 0x005F, 0xFBE9,
    0xFBCA, 0x008A, 0xFFB4, 0x0094, 0xFBBB, 0x2760, 0x26C0, 0xFBC5, 0x009C,
    0x0006, 0xFF28, 0x0112, 0x00D3, 0xFF19, 0x0005, 0xFFE1, 0x001F, 0xFE5E,
    0xFDA7, 0x0099, 0xFFDD, 0x0074, 0xFC36, 0x25E0, 0x2418, 0xFC4E, 0x005B,
    0x0003, 0xFDE9, 0x024F, 0x0092, 0xFE2A, 0x0001, 0xFFD4, 0xFED6, 0x04FC,
    0x02D4, 0xFFA2, 0x000F, 0x003B, 0xFF12, 0x1F84, 0x1CFC, 0xFEEF, 0x0021,
    0x0016, 0xFF9B, 0x017A, 0x015B, 0xFF9E, 0x0018, 0xFFE9, 0xFFB2, 0xFA11,
    0xF9C9, 0x0011, 0xFFC3, 0x0106, 0xFA08, 0x2A80, 0x29E0, 0xFA06, 0x010D,
    0xFFFF, 0xFF1E, 0x01AA, 0x00C2, 0xFF54, 0x0008, 0x0016, 0xFF5D, 0xFCA9,
    0xFB8F, 0x0052, 0xFFD9, 0x0090, 0xFB48, 0x2898, 0x26F8, 0xFB51, 0x008D,
    0xFFF8, 0xFDF6, 0x02D0, 0x0034, 0xFEC2, 0xFFFA, 0xFFFC, 0xFEC1, 0x0108,
    0xFF0E, 0xFFE3, 0x000E, 0x007F, 0xFD11, 0x24B0, 0x2200, 0xFCFF, 0x004D,
    0x0008, 0xFFBC, 0x01DF, 0x0182, 0xFFD2, 0x0010, 0xFFF2, 0x0021, 0xF894,
    0xF84E, 0x0076, 0xFFBB, 0x0156, 0xF895, 0x2C40, 0x2B58, 0xF8E8, 0x0161,
    0xFFF5, 0xFF15, 0x0271, 0x007E, 0xFFC9, 0xFFFF, 0x0048, 0xFEF3, 0xFB6B,
    0xF973, 0x0068, 0xFFCE, 0x00DF, 0xFA1B, 0x2AD0, 0x28D8, 0xFA72, 0x00D9,
    0xFFE5, 0xFCA6, 0x061F, 0xFDD5, 0xFFBC, 0xFFF8, 0x003B, 0xFE05, 0x006E,
    0xFBCE, 0x00A0, 0xFFF7, 0x008B, 0xFCC4, 0x2688, 0x2390, 0xFCFD, 0x0056,
    0xFF72, 0x0068, 0x00F0, 0x0035, 0x009C, 0xFF7A, 0x0038, 0x01D0, 0xF8F9,
    0xF8A8, 0x024F, 0xFFFF, 0x00EA, 0xF838, 0x2BF0, 0x2A78, 0xF8AE, 0x00BD,
    0xFFE5, 0xFEF0, 0x02C2, 0x0019, 0xFFF6, 0xFFE1, 0x0067, 0xFF66, 0xFB3D,
    0xF7E2, 0x0198, 0xFFD0, 0x0103, 0xF90E, 0x2C78, 0x28C8, 0xFA1E, 0x00BA,
    0x0015, 0xFA0E, 0x0BAA, 0xF9D7, 0x00C7, 0xFFFC, 0x0045, 0xFCE7, 0x0209,
    0xF752, 0x025B, 0xFFDF, 0x0099, 0xFCD4, 0x2838, 0x2368, 0xFD98, 0x0039,
    0x0019, 0xFF28, 0x02B4, 0x01D1, 0xFF85, 0xFFFF, 0x0028, 0xFFF0, 0xF7AA,
    0xF6EC, 0x00E7, 0xFFD4, 0x01C3, 0xF78C, 0x2E68, 0x2BC8, 0xF84D, 0x017A,
    0x0045, 0xFE4D, 0x038C, 0x00E3, 0xFFBF, 0xFFEB, 0x0063, 0xFE49, 0xFB94,
    0xF598, 0x0174, 0xFFC9, 0x0148, 0xF8D8, 0x2E48, 0x2838, 0xFAF6, 0x00AB,
    0x0168, 0xF5E0, 0x1178, 0xF6D2, 0x017C, 0x0013, 0xFF91, 0xFC15, 0x069E,
    0xF036, 0x048A, 0xFFB1, 0x005A, 0xFD1E, 0x29E8, 0x2140, 0xFF8E, 0xFFFD,
    0x006D, 0xFED1, 0x02E3, 0x01E7, 0xFF47, 0x0028, 0x0060, 0xFED8, 0xF856,
    0xF774, 0x0021, 0xFFE3, 0x01B0, 0xF800, 0x2EA0, 0x2A80, 0xF955, 0x015F,
    0x012C, 0xFD4A, 0x038C, 0x01C2, 0xFF04, 0x003E, 0x007E, 0xFD3D, 0xFD0F,
    0xF49C, 0x0169, 0xFF8A, 0x0143, 0xF88C, 0x2FB8, 0x2638, 0xFC59, 0x0089,
    0x0399, 0xF372, 0x1298, 0xF7AA, 0x01B4, 0x0028, 0xFEE6, 0xFAAA, 0x0A8E,
    0xE998, 0x05E2, 0xFF38, 0x0003, 0xFC5F, 0x2E50, 0x1DE0, 0x01CB, 0xFFAD,
    0x005F, 0xFEBE, 0x0387, 0x02DA, 0xFE05, 0x0117, 0x005A, 0x00DC, 0xF658,
    0xF5BA, 0x029D, 0xFEFA, 0x036C, 0xF406, 0x2FF0, 0x2C98, 0xF59E, 0x02EE,
    0x01F0, 0xFD5B, 0x00DA, 0x029D, 0xFE35, 0x00F3, 0x0164, 0xFBED, 0x029B,
    0xF724, 0xFFD3, 0x0003, 0x02B3, 0xF70C, 0x2F18, 0x22C0, 0xF9A1, 0x01FD,
    0x04EC, 0xF8BC, 0x07D8, 0xFB95, 0x01C2, 0xFEF0, 0x0108, 0xF282, 0x1BA4,
    0xE5F4, 0x04CC, 0xFF92, 0x0095, 0xF7EC, 0x36A8, 0x0F5E, 0x0752, 0xFEDF,
    0x0033, 0xFF44, 0x0062, 0x001E, 0xFF76, 0x0029, 0xFFC5, 0x0177, 0x0241,
    0x014F, 0x0190, 0xFFC1, 0x001C, 0x0031, 0x1EF8, 0x1A60, 0x00A5, 0xFFFF,
    0x0030, 0xFD94, 0x03B7, 0x004B, 0xFEE8, 0x002A, 0xFF94, 0x0017, 0x0D9A,
    0x00C8, 0x0158, 0x0003, 0xFFE5, 0x0227, 0x1CD4, 0x0E7C, 0x0232, 0x0030,
    0xFFFF, 0xFCA2, 0x0F32, 0xFE99, 0xFF7F, 0x0006, 0xFF23, 0x00EE, 0x1550,
    0xFFFC, 0x00BF, 0x000E, 0x0078, 0x03B0, 0x1194, 0x0886, 0x0132, 0x0073,
    0x000F, 0xFFBD, 0x009F, 0x009B, 0xFFAC, 0x000A, 0xFFCD, 0x00F3, 0xFDEA,
    0xFDC2, 0x00FA, 0xFFC2, 0x0074, 0xFD36, 0x2488, 0x2218, 0xFD6B, 0x0069,
    0x0011, 0xFED2, 0x00F6, 0x002A, 0xFF13, 0x000A, 0xFFA5, 0x00EF, 0x0374,
    0x00F7, 0x00F7, 0xFFEA, 0x0022, 0xFEE7, 0x21E8, 0x1B1C, 0xFEE6, 0x0011,
    0x0007, 0xFCF1, 0x071B, 0xFF0A, 0xFE44, 0x000B, 0xFF1A, 0x00CC, 0x0BCC,
    0x02D9, 0x0179, 0xFFD4, 0x000B, 0x01F1, 0x185C, 0x129C, 0x01A4, 0x0026,
    0x0008, 0xFFB2, 0x00E6, 0x00F8, 0xFF7F, 0x000E, 0xFFDC, 0x0031, 0xFBF2,
    0xFB92, 0x00B8, 0xFFA1, 0x0090, 0xFBA8, 0x2810, 0x2638, 0xFBC7, 0x00A7,
    0x0009, 0xFF5F, 0x0104, 0x0092, 0xFF31, 0x0008, 0xFFE2, 0xFFCE, 0xFE89,
    0xFC9F, 0x012A, 0xFFD2, 0x008E, 0xFBE6, 0x2848, 0x22D8, 0xFC14, 0x0049,
    0x0019, 0xFE42, 0x0241, 0xFEE0, 0xFE83, 0xFFFE, 0xFF4E, 0xFEEF, 0x05DB,
    0x0082, 0x010B, 0x004A, 0x0088, 0xFEAE, 0x2370, 0x1B98, 0xFE07, 0xFFC8,
    0x0012, 0xFFA0, 0x018E, 0x014B, 0xFF89, 0x0020, 0x000A, 0xFF6C, 0xFA2D,
    0xF98A, 0x006E, 0xFFA0, 0x0102, 0xF9E8, 0x2B40, 0x2950, 0xFA00, 0x011D,
    0xFFF7, 0xFF2E, 0x021E, 0x003B, 0xFF7C, 0x0015, 0x0060, 0xFE82, 0xFCFF,
    0xFA13, 0x0160, 0xFF99, 0x00A0, 0xFADC, 0x2B10, 0x25F0, 0xFAE6, 0x00A2,
    0x000A, 0xFECD, 0x0379, 0xFE76, 0xFEEC, 0xFFF5, 0xFFBA, 0xFCAF, 0x00FC,
    0xFC4A, 0x02C5, 0x003C, 0x016D, 0xFD3E, 0x2A70, 0x2028, 0xFAD3, 0xFF8F,
    0x0016, 0xFF8B, 0x0239, 0x015C, 0xFFBB, 0x0018, 0x0009, 0xFFA4, 0xF8C2,
    0xF7EC, 0x00D8, 0xFF9C, 0x018D, 0xF853, 0x2D68, 0x2AA0, 0xF8E6, 0x015B,
    0xFFF8, 0xFE70, 0x03BB, 0xFF9E, 0xFFEB, 0x001A, 0x00D3, 0xFDCD, 0xFC9F,
    0xF744, 0x01DF, 0xFF6B, 0x00FC, 0xF94A, 0x2D88, 0x2728, 0xFAAB, 0x00C8,
    0xFFD0, 0xFBE7, 0x0820, 0xFBE2, 0x0067, 0x0016, 0x012E, 0xFC16, 0x01F1,
    0xF6FC, 0x0358, 0xFF89, 0x00C5, 0xFB73, 0x2C60, 0x2180, 0xFCEA, 0xFFB8,
    0xFFFE, 0xFF6E, 0x0293, 0x010F, 0xFFCA, 0xFFF5, 0x003C, 0xFFB2, 0xF89D,
    0xF744, 0x0197, 0xFFA7, 0x01C5, 0xF794, 0x2EB8, 0x2A40, 0xF89F, 0x0139,
    0x004F, 0xFD9A, 0x04E8, 0xFF90, 0xFFC6, 0x001F, 0x00E2, 0xFD0A, 0xFD3D,
    0xF486, 0x0310, 0xFF58, 0x0157, 0xF872, 0x3050, 0x25E0, 0xFB45, 0x0064,
    0x0124, 0xF7BE, 0x0D04, 0xFA2C, 0x0092, 0x0031, 0x00A4, 0xFB94, 0x052C,
    0xF1EE, 0x0473, 0xFF63, 0xFFC3, 0xFD30, 0x2D30, 0x1EE0, 0xFF6D, 0xFF97,
    0x006B, 0xFE9D, 0x0394, 0x01A8, 0xFF3E, 0x003B, 0x005C, 0xFEBF, 0xF818,
    0xF640, 0x016F, 0xFF77, 0x023C, 0xF6BC, 0x3118, 0x29B0, 0xF8C6, 0x015E,
    0x0147, 0xFC26, 0x05A8, 0x0096, 0xFF50, 0x003B, 0x00AC, 0xFC0D, 0xFF10,
    0xF152, 0x03A5, 0xFF61, 0x018E, 0xF7E2, 0x33B0, 0x2290, 0xFD3B, 0xFFBF,
    0x0342, 0xF392, 0x0F02, 0xFB9E, 0xFFFC, 0x004B, 0xFE96, 0xFC6A, 0x0AD0,
    0xED04, 0x0458, 0xFF8D, 0xFF23, 0xFFE2, 0x2D50, 0x19C4, 0x01DD, 0xFF98,
    0x0090, 0xFE73, 0x0385, 0x019E, 0xFF31, 0x001E, 0x00ED, 0xFD92, 0xF929,
    0xF6BC, 0x0141, 0xFF94, 0x01F9, 0xF6E2, 0x32A0, 0x26A0, 0xFA34, 0x0103,
    0x0234, 0xFB58, 0x04D0, 0x01E7, 0xFE94, 0x0082, 0x00FD, 0xFB47, 0x0171,
    0xF006, 0x03F4, 0xFEFD, 0x0128, 0xF726, 0x3738, 0x1DA0, 0xFF3C, 0xFF9D,
    0x0526, 0xF20A, 0x0DF4, 0xFED3, 0xFF5C, 0x006A, 0xFCE6, 0xFD2D, 0x0E20,
    0xE880, 0x03C1, 0xFFB5, 0xFF3B, 0xFF81, 0x30E0, 0x1514, 0x0410, 0xFF5A,
    0x007A, 0xFEE3, 0x0450, 0x02A0, 0xFDDE, 0x011D, 0x0151, 0xFEEA, 0xF6EA,
    0xF5B6, 0x0268, 0xFF47, 0x0361, 0xF2BC, 0x33C0, 0x2860, 0xF7DE, 0x0212,
    0x02DE, 0xFAEE, 0x0112, 0x0465, 0xFD02, 0x0166, 0x02DE, 0xFBE2, 0x0525,
    0xF14E, 0x0287, 0xFE9F, 0x0134, 0xF53E, 0x3BA0, 0x1640, 0xFE92, 0x0118,
    0x071C, 0xF348, 0x0536, 0x04BC, 0xFD58, 0x00B5, 0xFC36, 0xFD47, 0x1B58,
    0xE4B0, 0x0391, 0xFFAA, 0xFF91, 0xFD94, 0x3710, 0x0775, 0x065C, 0xFED6,
    0x0038, 0xFF53, 0x0044, 0x001C, 0xFF90, 0x0029, 0xFFAF, 0x0198, 0x0228,
    0x010D, 0x0186, 0xFFBD, 0x0016, 0x0008, 0x20D8, 0x1900, 0x00A9, 0xFFFC,
    0x003B, 0xFDD9, 0x0118, 0xFF5D, 0xFF54, 0x0034, 0xFFAA, 0xFFE4, 0x10C4,
    0x00D3, 0x020E, 0xFFE2, 0xFFCC, 0x00F2, 0x21B8, 0x0A88, 0x01CA, 0x0013,
    0x0003, 0xFF1B, 0x0259, 0xFE6B, 0xFF7E, 0x0008, 0xFFAB, 0xFF8B, 0x1D34,
    0x006C, 0x031C, 0x000B, 0xFFB7, 0x0051, 0x1B40, 0x052E, 0x004C, 0xFFD6,
    0x0010, 0xFFC6, 0x0093, 0x009A, 0xFFAA, 0x000C, 0xFFCE, 0x0101, 0xFDC6,
    0xFDA1, 0x00FE, 0xFFC1, 0x007A, 0xFD0C, 0x2580, 0x2170, 0xFD6C, 0x0071,
    0x001C, 0xFEE0, 0x008C, 0xFFD1, 0xFF43, 0x000D, 0xFF71, 0x0176, 0x037F,
    0xFFCF, 0x016D, 0xFFE2, 0x002F, 0xFE5B, 0x2550, 0x1980, 0xFE77, 0x0002,
    0x0015, 0xFE33, 0x0218, 0xFE4F, 0xFEA9, 0x0016, 0xFEC4, 0x025E, 0x113C,
    0x0114, 0x02A7, 0xFFE5, 0xFFB8, 0x0075, 0x1BD0, 0x10DC, 0xFFA3, 0x001C,
    0x0006, 0xFFD7, 0x00BD, 0x0105, 0xFF71, 0x0011, 0xFFEF, 0x0011, 0xFBF7,
    0xFB6A, 0x00E7, 0xFF84, 0x0088, 0xFB8D, 0x28C0, 0x25C0, 0xFBBA, 0x00C1,
    0x000D, 0xFFA6, 0x00B0, 0x00A2, 0xFF38, 0x000D, 0xFFE2, 0xFFB8, 0xFE40,
    0xFB99, 0x01AA, 0xFFB7, 0x0097, 0xFB81, 0x2AB8, 0x21F0, 0xFBC5, 0x0061,
    0x002D, 0xFEC0, 0x013A, 0xFE7A, 0xFEC5, 0xFFFF, 0xFED6, 0xFFC8, 0x0673,
    0xFEA8, 0x0239, 0x0067, 0x00C2, 0xFDEA, 0x2760, 0x198C, 0xFD23, 0xFF88,
    0x000F, 0xFFAF, 0x018D, 0x0148, 0xFF77, 0x0024, 0x002E, 0xFF35, 0xFA2E,
    0xF94E, 0x00BD, 0xFF84, 0x00F3, 0xF9C6, 0x2C08, 0x28D0, 0xF9E5, 0x0138,
    0xFFF1, 0xFF70, 0x01F0, 0x006A, 0xFF62, 0x0021, 0x00B5, 0xFDE3, 0xFCE3,
    0xF8DE, 0x0237, 0xFF6A, 0x009E, 0xFA4E, 0x2D90, 0x2518, 0xFA6B, 0x00C8,
    0x0008, 0x0001, 0x02F8, 0xFECA, 0xFE4D, 0xFFFA, 0xFFD8, 0xFAFF, 0xFFAD,
    0xFAAC, 0x050B, 0x007E, 0x01F1, 0xFDBD, 0x2FC8, 0x1DF0, 0xF8D6, 0xFEF5,
    0x000F, 0xFF89, 0x0254, 0x015A, 0xFF98, 0x001F, 0x002D, 0xFF45, 0xF8DE,
    0xF7B8, 0x011C, 0xFF8C, 0x01B0, 0xF811, 0x2E60, 0x29F0, 0xF8F1, 0x014D,
    0x0005, 0xFE56, 0x03C8, 0xFFF8, 0xFF98, 0x0036, 0x0160, 0xFCBC, 0xFD2B,
    0xF5FC, 0x02BC, 0xFF3A, 0x00EC, 0xF8B1, 0x3050, 0x2550, 0xFAF1, 0x00AF,
    0xFFFF, 0xFD62, 0x054B, 0xFE2D, 0xFF7F, 0x0019, 0x021F, 0xFA3D, 0x014A,
    0xF658, 0x044B, 0xFFC6, 0x007B, 0xFB08, 0x31D0, 0x1EB4, 0xFC2A, 0xFF51,
    0x003A, 0xFF10, 0x0338, 0x0148, 0xFF67, 0x0029, 0x0048, 0xFEC2, 0xF88F,
    0xF69E, 0x01D4, 0xFF6A, 0x022D, 0xF728, 0x3088, 0x2960, 0xF8A6, 0x0149,
    0x00C8, 0xFCDB, 0x057C, 0x0020, 0xFF23, 0x004C, 0x014B, 0xFB16, 0xFEC2,
    0xF300, 0x03AA, 0xFF62, 0x013A, 0xF889, 0x33B8, 0x2250, 0xFC78, 0xFFE1,
    0x018B, 0xF9B5, 0x06E0, 0xFEED, 0xFF79, 0x0021, 0x016B, 0xF99A, 0x06F4,
    0xF236, 0x0330, 0xFFDE, 0xFF1A, 0xFC3B, 0x31E0, 0x1B04, 0x0055, 0xFF8C,
    0x0067, 0xFEC6, 0x03AB, 0x0192, 0xFF33, 0x0049, 0x00A8, 0xFDDF, 0xF858,
    0xF60C, 0x01E1, 0xFF46, 0x026F, 0xF63E, 0x3338, 0x27C0, 0xF937, 0x012D,
    0x01E9, 0xFB03, 0x0671, 0x0125, 0xFE82, 0x007A, 0x010E, 0xF9E7, 0x00FF,
    0xF0B2, 0x038E, 0xFFA3, 0x00CF, 0xF8E1, 0x37F8, 0x1C74, 0xFF55, 0xFF3C,
    0x0322, 0xF6AC, 0x0687, 0x0108, 0xFF09, 0x0012, 0xFF58, 0xF948, 0x0E5A,
    0xEFC0, 0x01D9, 0x003F, 0xFEC3, 0xFFCF, 0x31E8, 0x13EC, 0x0285, 0xFFCC,
    0x0074, 0xFEA9, 0x03A1, 0x0172, 0xFF0B, 0x004D, 0x0185, 0xFC75, 0xF97C,
    0xF6BA, 0x01E6, 0xFF32, 0x01F0, 0xF65A, 0x3590, 0x23B0, 0xFACD, 0x00D9,
    0x02BB, 0xF9EF, 0x05EB, 0x022F, 0xFDDB, 0x00D5, 0x014B, 0xF97A, 0x030D,
    0xF0BA, 0x02F3, 0xFF82, 0xFFD7, 0xF905, 0x3C70, 0x1544, 0x0197, 0xFF66,
    0x048B, 0xF500, 0x059F, 0x0304, 0xFEB6, 0x000D, 0xFD82, 0xFA0F, 0x12A4,
    0xEDF0, 0x00D9, 0x0083, 0xFF0A, 0x00F3, 0x3260, 0x0FA2, 0x03A8, 0xFFEB,
    0x00C7, 0xFF3D, 0x0476, 0x01F9, 0xFE4D, 0x0192, 0x0183, 0xFE1E, 0xF5EC,
    0xF70E, 0x01BD, 0xFEA3, 0x0341, 0xF1F4, 0x3780, 0x2450, 0xF971, 0x023B,
    0x02FC, 0xF980, 0x0389, 0x030B, 0xFD20, 0x012F, 0x0310, 0xFB0A, 0x0308,
    0xF44C, 0x0176, 0xFFD3, 0x003B, 0xF776, 0x4490, 0x0A40, 0x0214, 0xFF5D,
    0x05A4, 0xF40C, 0x01A1, 0x051B, 0xFE41, 0x003C, 0xFCD3, 0xFBB1, 0x1A1C,
    0xF190, 0xFFAE, 0x0076, 0xFF44, 0x00F5, 0x34B0, 0x0418, 0x03A6, 0x001C,
    0x0043, 0xFF78, 0x0011, 0x0004, 0xFFAB, 0x0027, 0xFF9C, 0x01CC, 0x01CB,
    0x00E8, 0x018F, 0xFFB9, 0x0025, 0xFFCD, 0x22A8, 0x17DC, 0x00A1, 0xFFE1,
    0x0022, 0x0039, 0xFF74, 0xFF3E, 0xFF91, 0x0036, 0xFFC7, 0x0059, 0x09C2,
    0x00B5, 0x02A0, 0xFFAB, 0xFFD1, 0xFF81, 0x2920, 0x0AC6, 0x0158, 0xFFBC,
    0x0011, 0xFFB1, 0x0051, 0xFE80, 0xFFD5, 0x0016, 0xFF6A, 0x0339, 0x0FF2,
    0xFF5F, 0x0325, 0xFFC2, 0x002F, 0xFD2B, 0x2AD8, 0x053D, 0xFF80, 0xFFBB,
    0x0015, 0xFFCD, 0x0082, 0x009A, 0xFFAE, 0x000D, 0xFFCB, 0x0121, 0xFD8E,
    0xFD82, 0x0106, 0xFFB5, 0x007D, 0xFCEA, 0x2658, 0x20F0, 0xFD6A, 0x0077,
    0x0028, 0xFF07, 0x0045, 0xFFBD, 0xFF6E, 0x000F, 0xFF48, 0x0232, 0x01E4,
    0xFEE2, 0x01C0, 0xFFD4, 0x004A, 0xFD82, 0x28E8, 0x189C, 0xFE3A, 0xFFF7,
    0x0026, 0xFF84, 0x0152, 0xFDAA, 0xFF0B, 0x001B, 0xFE78, 0x03B7, 0x08F0,
    0xFFF6, 0x03E0, 0xFFD4, 0xFFDB, 0xFE7F, 0x24B8, 0x1210, 0xFE8B, 0xFFC0,
    0x0007, 0xFFF5, 0x009C, 0x010D, 0xFF65, 0x0016, 0xFFFB, 0x0005, 0xFBD3,
    0xFB5A, 0x010A, 0xFF6F, 0x007B, 0xFB80, 0x2960, 0x2558, 0xFBA8, 0x00DB,
    0x0008, 0xFFE4, 0x0041, 0x00F4, 0xFF38, 0x0018, 0xFFF6, 0xFFF8, 0xFD8A,
    0xFAEE, 0x01EE, 0xFF89, 0x0084, 0xFB03, 0x2CC0, 0x2148, 0xFB8F, 0x0098,
    0x002A, 0xFEE6, 0x004A, 0xFEEB, 0xFF26, 0x000C, 0xFEA5, 0x020A, 0x040A,
    0xFD62, 0x028A, 0x0017, 0x0078, 0xFC78, 0x2B40, 0x18B4, 0xFD09, 0xFFE0,
    0x0008, 0xFFCE, 0x016D, 0x0158, 0xFF60, 0x002D, 0x0041, 0xFF1E, 0xFA21,
    0xF932, 0x00F2, 0xFF6C, 0x00F2, 0xF9AA, 0x2CA0, 0x2878, 0xF9C8, 0x014F,
    0xFFE1, 0xFFE3, 0x0138, 0x0116, 0xFF26, 0x0032, 0x00F3, 0xFDD9, 0xFC4E,
    0xF845, 0x0294, 0xFF43, 0x0072, 0xF9C0, 0x2F78, 0x2498, 0xFA0D, 0x0117,
    0xFFA5, 0x0010, 0x0144, 0x000A, 0xFE96, 0x0024, 0x00D7, 0xFD4F, 0xFEEC,
    0xF96E, 0x046B, 0xFFDB, 0x0073, 0xFB4F, 0x31F0, 0x1DE0, 0xF9AF, 0x0041,
    0x000C, 0xFFA2, 0x0246, 0x015B, 0xFF88, 0x0026, 0x0038, 0xFF1A, 0xF8C0,
    0xF7C0, 0x0142, 0xFF7D, 0x01C6, 0xF7EA, 0x2F20, 0x2978, 0xF8E3, 0x014E,
    0xFFE2, 0xFF43, 0x027E, 0x00F9, 0xFF2E, 0x0049, 0x01A1, 0xFC68, 0xFC6C,
    0xF614, 0x02E8, 0xFF3D, 0x00EB, 0xF806, 0x32E8, 0x23D0, 0xFAF0, 0x00AB,
    0xFF5A, 0xFFB4, 0x022D, 0x0007, 0xFF1D, 0x002D, 0x02F0, 0xFAA2, 0xFF05,
    0xF6F0, 0x0449, 0xFFB6, 0x000C, 0xF921, 0x3620, 0x1D28, 0xFBC1, 0xFFB8,
    0x0049, 0xFF2E, 0x0334, 0x016D, 0xFF41, 0x0038, 0x004F, 0xFE3D, 0xF873,
    0xF686, 0x0213, 0xFF4E, 0x0267, 0xF702, 0x31D0, 0x2878, 0xF899, 0x013D,
    0x008E, 0xFE52, 0x039C, 0x0144, 0xFEC8, 0x0043, 0x01CC, 0xF9A6, 0xFE8F,
    0xF3EC, 0x0349, 0xFFBA, 0x0142, 0xF801, 0x3720, 0x1F40, 0xFD14, 0xFF89,
    0x003A, 0xFEC3, 0x01A2, 0x00EE, 0xFF24, 0x001E, 0x0356, 0xF740, 0x03C3,
    0xF52C, 0x02EB, 0x000D, 0xFEFF, 0xF9D0, 0x3930, 0x17A0, 0xFF99, 0xFF82,
    0x0047, 0xFF2F, 0x0381, 0x0193, 0xFF18, 0x0051, 0x00EF, 0xFD20, 0xF84C,
    0xF63E, 0x0241, 0xFF23, 0x027D, 0xF61C, 0x34F8, 0x2618, 0xF94F, 0x011B,
    0x0154, 0xFD5B, 0x03F7, 0x01F7, 0xFE76, 0x0048, 0x0224, 0xF732, 0x00B9,
    0xF3A0, 0x0257, 0x0018, 0x0044, 0xF8F1, 0x3C90, 0x1750, 0x0046, 0xFF31,
    0x0169, 0xFDDB, 0xFFBD, 0x0225, 0xFF2D, 0x0003, 0x024A, 0xF480, 0x0A36,
    0xF578, 0x00DF, 0x004E, 0xFE2F, 0xFCD9, 0x3AF0, 0x0FD6, 0x0234, 0x0006,
    0x002C, 0xFF4D, 0x0346, 0x0192, 0xFED6, 0x006C, 0x01FC, 0xFB7E, 0xF95C,
    0xF71C, 0x0244, 0xFEF6, 0x01D8, 0xF642, 0x37D8, 0x2168, 0xFB20, 0x00C6,
    0x0218, 0xFC99, 0x036E, 0x026A, 0xFE38, 0x005D, 0x022E, 0xF5B2, 0x02FE,
    0xF538, 0x0131, 0x0025, 0xFF30, 0xFA5B, 0x4110, 0x0EFE, 0x0249, 0xFF97,
    0x02B1, 0xFC91, 0xFEF3, 0x02C8, 0xFF41, 0xFFF0, 0x00A8, 0xF428, 0x0DF4,
    0xF5BE, 0xFFA4, 0x0078, 0xFE59, 0xFE6A, 0x3BC8, 0x0AEA, 0x038F, 0x0034,
    0x00BD, 0xFFFF, 0x03E4, 0x01D0, 0xFEA4, 0x0188, 0x0170, 0xFD8A, 0xF550,
    0xF878, 0x0128, 0xFE57, 0x033F, 0xF1CE, 0x3A98, 0x20E0, 0xFA83, 0x021E,
    0x0234, 0xFC83, 0x029E, 0x0218, 0xFDDE, 0x00B5, 0x030F, 0xF51E, 0x02D9,
    0xF982, 0xFFC5, 0x0047, 0xFF73, 0xFB81, 0x47E0, 0x043D, 0x02AD, 0xFFAF,
    0x0378, 0xFAC3, 0xFE79, 0x020A, 0xFFBD, 0xFFFC, 0xFFC0, 0xF526, 0x0FC2,
    0xFBF3, 0xFEB2, 0x001F, 0xFE73, 0x0089, 0x4150, 0xFE80, 0x0294, 0x00B6,
    0x004C, 0xFF69, 0x000B, 0xFFD8, 0xFFAF, 0x002C, 0xFF8C, 0x0205, 0x00F6,
    0x00D2, 0x019A, 0xFFBB, 0x000F, 0xFFE4, 0x2408, 0x174C, 0x00B2, 0xFFEA,
    0x0039, 0x005B, 0xFF4A, 0xFF61, 0xFF9B, 0x0038, 0xFF67, 0x0253, 0x0434,
    0x00B5, 0x0288, 0xFFB6, 0x0019, 0xFED4, 0x2D60, 0x0B24, 0x012E, 0xFF6C,
    0x0014, 0x011C, 0xFF65, 0xFE0C, 0xFFC1, 0x001A, 0xFFD2, 0x033E, 0x04C5,
    0x00E3, 0x03B9, 0xFFD6, 0xFF7E, 0xFC24, 0x3420, 0x0573, 0x00C9, 0xFF40,
    0x0017, 0xFFCF, 0x007A, 0x009C, 0xFFAB, 0x000E, 0xFFCC, 0x0146, 0xFD3B,
    0xFD6B, 0x0108, 0xFFB2, 0x007B, 0xFCD0, 0x2720, 0x2078, 0xFD6C, 0x0087,
    0x003B, 0xFF02, 0x0029, 0xFFEB, 0xFF8C, 0x0011, 0xFF1E, 0x032E, 0xFF90,
    0xFE6D, 0x01BE, 0xFFBE, 0x005E, 0xFCE0, 0x2BF0, 0x17E8, 0xFE3C, 0xFFFA,
    0x0041, 0xFF63, 0x0057, 0xFE1E, 0xFF21, 0x001C, 0xFE9B, 0x052F, 0x0192,
    0xFF8A, 0x047B, 0xFFD7, 0xFF98, 0xFD99, 0x2D48, 0x1124, 0xFE9B, 0xFF3E,
    0x0005, 0x0008, 0x0076, 0x0121, 0xFF5D, 0x0018, 0x000B, 0x0009, 0xFBBA,
    0xFB49, 0x0121, 0xFF62, 0x0069, 0xFB79, 0x29D8, 0x2500, 0xFB96, 0x00FC,
    0x0001, 0x0022, 0xFFDC, 0x015C, 0xFF28, 0x0024, 0x0010, 0x0050, 0xFC7E,
    0xFAB6, 0x020A, 0xFF54, 0x0048, 0xFAC5, 0x2E50, 0x20B8, 0xFB6A, 0x00EF,
    0x0035, 0xFE90, 0xFFCA, 0xFF8E, 0xFF52, 0x0018, 0xFE68, 0x0494, 0x0052,
    0xFD0E, 0x02AE, 0xFFCF, 0x0026, 0xFBC1, 0x2EF8, 0x17AC, 0xFCF5, 0x001E,
    0x000C, 0xFFF1, 0x0138, 0x0177, 0xFF51, 0x0034, 0x0038, 0xFF27, 0xF9E8,
    0xF945, 0x0109, 0xFF53, 0x00EB, 0xF99B, 0x2D10, 0x2830, 0xF9AF, 0x016F,
    0xFFCB, 0x006B, 0x006A, 0x01C3, 0xFEF0, 0x0046, 0x00F5, 0xFE48, 0xFB46,
    0xF856, 0x0296, 0xFF1E, 0x0047, 0xF975, 0x3090, 0x2460, 0xF9C7, 0x016B,
    0xFF87, 0x0036, 0xFFAD, 0x0138, 0xFED6, 0x0044, 0x0092, 0x002E, 0xFD3F,
    0xF957, 0x0361, 0xFF5D, 0xFFEC, 0xF997, 0x3278, 0x1EA0, 0xFA77, 0x011C,
    0x0009, 0xFFC9, 0x0227, 0x0176, 0xFF67, 0x0031, 0x002C, 0xFF1E, 0xF861,
    0xF7E4, 0x016D, 0xFF6C, 0x01D9, 0xF7D4, 0x2FD0, 0x28F8, 0xF8BE, 0x0159,
    0xFF99, 0x0066, 0x0142, 0x01BE, 0xFED8, 0x0063, 0x0199, 0xFCE2, 0xFA8E,
    0xF73C, 0x02C5, 0xFF35, 0x00EB, 0xF7A0, 0x34B8, 0x22E0, 0xFA7F, 0x00E3,
    0xFEEF, 0x013D, 0xFFF5, 0x0199, 0xFEC5, 0x0049, 0x0262, 0xFCE9, 0xFC00,
    0xF836, 0x0358, 0xFFAA, 0x0061, 0xF764, 0x37C0, 0x1D60, 0xFBA1, 0x002E,
    0x004A, 0xFF6C, 0x0309, 0x018A, 0xFF16, 0x0051, 0x0020, 0xFE3D, 0xF7F0,
    0xF6CA, 0x025C, 0xFF21, 0x02A4, 0xF6E2, 0x32C0, 0x27E0, 0xF850, 0x0149,
    0xFFBF, 0x0095, 0x0195, 0x01D1, 0xFEAE, 0x004E, 0x0225, 0xF9EE, 0xFBE9,
    0xF676, 0x02D8, 0xFFBA, 0x017C, 0xF702, 0x39E8, 0x1D94, 0xFC9F, 0xFFAF,
    0xFF04, 0x01FC, 0xFF4C, 0x01B7, 0xFF08, 0x0025, 0x035E, 0xF92C, 0xFDA9,
    0xF8CB, 0x0206, 0x002C, 0x0029, 0xF6D8, 0x3D28, 0x1724, 0xFEF4, 0xFF5F,
    0x001C, 0xFFC7, 0x032C, 0x01A8, 0xFEFE, 0x0062, 0x00D9, 0xFCFF, 0xF790,
    0xF6DA, 0x025C, 0xFF0B, 0x02B7, 0xF5EC, 0x3660, 0x24E8, 0xF936, 0x0119,
    0xFFFE, 0x00A2, 0x019F, 0x01EC, 0xFECB, 0x0033, 0x0317, 0xF716, 0xFC92,
    0xF7D4, 0x0185, 0x0013, 0x00A1, 0xF732, 0x4030, 0x15A0, 0xFFA0, 0xFF69,
    0xFF70, 0x021F, 0xFE8A, 0x01BD, 0xFF57, 0x000A, 0x03D0, 0xF610, 0x0016,
    0xFA64, 0x0077, 0x0049, 0xFEF8, 0xF875, 0x4150, 0x0FD2, 0x0158, 0xFFC8,
    0xFFFD, 0x004D, 0x0298, 0x01AB, 0xFEC1, 0x006E, 0x01C3, 0xFB0A, 0xF888,
    0xF82F, 0x023A, 0xFEFA, 0x0213, 0xF64A, 0x3980, 0x1FE4, 0xFB03, 0x00C7,
    0x00A0, 0x00AF, 0x0109, 0x01BA, 0xFED2, 0x002F, 0x036E, 0xF48E, 0xFE34,
    0xF9F7, 0x0095, 0x001F, 0xFF8C, 0xF8C5, 0x44A0, 0x0E12, 0x014F, 0xFFBB,
    0x005E, 0x012A, 0xFED5, 0x017B, 0xFF97, 0xFFFB, 0x0358, 0xF48E, 0x01C1,
    0xFB48, 0xFFB2, 0x0042, 0xFE4A, 0xFA2E, 0x4450, 0x0A18, 0x02AB, 0x0024,
    0x0070, 0x0121, 0x02A5, 0x0290, 0xFE83, 0x013F, 0x0172, 0xFD63, 0xF4DA,
    0xF951, 0x0086, 0xFE60, 0x02EC, 0xF200, 0x3C50, 0x1F04, 0xFB1F, 0x0234,
    0x00F6, 0x014A, 0x0078, 0x0183, 0xFE9D, 0x0041, 0x034C, 0xF37C, 0xFF23,
    0xFCA8, 0xFF94, 0x004F, 0xFFFB, 0xFA66, 0x4810, 0x0660, 0x01BD, 0xFFE4,
    0x017D, 0xFFBE, 0xFF84, 0x0083, 0xFFFA, 0xFFF8, 0x0221, 0xF37E, 0x02E1,
    0xFE52, 0xFF8C, 0x0007, 0xFE4B, 0xFDBA, 0x48B0, 0x0144, 0x020A, 0x005E,
    0x0055, 0xFF6A, 0x0008, 0xFFE6, 0xFFAE, 0x002B, 0xFF7A, 0x0239, 0x0075,
    0x00BE, 0x0198, 0xFFB2, 0x0007, 0x0010, 0x24B8, 0x16C4, 0x00CD, 0xFFED,
    0x0084, 0xFF7C, 0xFF69, 0xFFAD, 0xFFAB, 0x0033, 0xFF21, 0x0400, 0x0141,
    0x00AD, 0x0233, 0xFFA4, 0x0008, 0xFF36, 0x2EE8, 0x0B70, 0x0116, 0xFF77,
    0x0052, 0xFFBE, 0xFFE3, 0xFF5C, 0xFFE3, 0x000F, 0xFF80, 0x04D3, 0x006C,
    0xFF9D, 0x01D3, 0xFFF3, 0x001D, 0xFF62, 0x37F0, 0x034D, 0x008F, 0xFF50,
    0x001C, 0xFFCE, 0x0078, 0x0095, 0xFFAE, 0x000F, 0xFFCC, 0x0167, 0xFCF5,
    0xFD67, 0x010A, 0xFFB0, 0x007D, 0xFCCC, 0x2798, 0x2028, 0xFD6B, 0x008B,
    0x0054, 0xFEEA, 0x0031, 0x000A, 0xFFA6, 0x0013, 0xFEEB, 0x0407, 0xFD8C,
    0xFE65, 0x019D, 0xFFAF, 0x0056, 0xFCB9, 0x2E20, 0x1708, 0xFE58, 0x000B,
    0x0076, 0xFEA1, 0xFFB9, 0xFF24, 0xFFB6, 0x000E, 0xFE7D, 0x0741, 0xFEE7,
    0xFF83, 0x02BF, 0xFFD5, 0xFFB9, 0xFDB8, 0x3378, 0x0BDA, 0xFF7B, 0xFF4A,
    0x0003, 0x001E, 0x005F, 0x0127, 0xFF55, 0x001B, 0x001B, 0x000D, 0xFB94,
    0xFB5E, 0x012D, 0xFF58, 0x0060, 0xFB73, 0x2A20, 0x24C8, 0xFB7E, 0x0116,
    0xFFFF, 0x0040, 0xFFB0, 0x0188, 0xFF1A, 0x002F, 0x002F, 0x00C3, 0xFB52,
    0xFB0A, 0x0209, 0xFF27, 0xFFEA, 0xFAB3, 0x2F80, 0x1FF8, 0xFB58, 0x0153,
    0x005B, 0xFE5A, 0xFFF5, 0xFFF8, 0xFF8A, 0x001B, 0xFE4A, 0x05E8, 0xFCBE,
    0xFD7B, 0x0250, 0xFFAB, 0x0020, 0xFB92, 0x3340, 0x14E0, 0xFD71, 0x0013,
    0x0005, 0x000F, 0x010A, 0x018F, 0xFF38, 0x003D, 0x0033, 0xFF39, 0xF9BD,
    0xF960, 0x012D, 0xFF3D, 0x00EF, 0xF9AB, 0x2D48, 0x2800, 0xF98B, 0x0183,
    0xFFC1, 0x00BE, 0xFFF4, 0x0210, 0xFECD, 0x005A, 0x00E9, 0xFED0, 0xFA20,
    0xF8E8, 0x0297, 0xFEEC, 0x0003, 0xF985, 0x3128, 0x2420, 0xF972, 0x01CC,
    0xFFA8, 0x001C, 0xFF80, 0x0190, 0xFED7, 0x0059, 0x0010, 0x01FA, 0xFAC0,
    0xFA74, 0x02EB, 0xFF24, 0xFFD7, 0xF9AA, 0x33E0, 0x1D44, 0xFABB, 0x014D,
    0x000C, 0xFFDF, 0x020D, 0x0183, 0xFF48, 0x0041, 0x0009, 0xFF48, 0xF801,
    0xF816, 0x01A1, 0xFF55, 0x01FE, 0xF7C8, 0x3030, 0x28D0, 0xF875, 0x0162,
    0xFF84, 0x00F1, 0x00D0, 0x01DC, 0xFEBB, 0x0080, 0x014F, 0xFD9E, 0xF8C2,
    0xF89A, 0x02A8, 0xFEF8, 0x00CE, 0xF7D6, 0x35B8, 0x2230, 0xF9DE, 0x0154,
    0xFF54, 0x00F1, 0x001F, 0x0192, 0xFEB4, 0x006D, 0x00DF, 0xFFEF, 0xF855,
    0xFA54, 0x02BB, 0xFF66, 0x00CA, 0xF712, 0x3890, 0x1CFC, 0xFB40, 0x00A7,
    0x00A4, 0xFF00, 0x0346, 0x01BE, 0xFE81, 0x00A5, 0xFF3A, 0xFF89, 0xF6D4,
    0xF6A2, 0x038E, 0xFE81, 0x032F, 0xF670, 0x3348, 0x2820, 0xF74E, 0x0198,
    0xFF2C, 0x0188, 0x0170, 0x0125, 0xFEBB, 0x007F, 0x01DE, 0xFB94, 0xF8D1,
    0xF87D, 0x0397, 0xFF35, 0x01DF, 0xF6D2, 0x3AE0, 0x1D7C, 0xFAD8, 0x000C,
    0xFF37, 0x0169, 0x007C, 0x00FB, 0xFF1F, 0x0040, 0x0156, 0xFE41, 0xF776,
    0xFBAD, 0x01CB, 0xFFEF, 0x01A1, 0xF520, 0x3E58, 0x17C8, 0xFDAD, 0xFF85,
    0x0081, 0xFF87, 0x0350, 0x01D5, 0xFE77, 0x00AF, 0xFFC6, 0xFE30, 0xF642,
    0xF712, 0x034C, 0xFE80, 0x0358, 0xF57A, 0x3710, 0x2520, 0xF819, 0x017C,
    0xFF15, 0x0210, 0x019C, 0x00F7, 0xFEEF, 0x006C, 0x02DE, 0xF8CC, 0xF83E,
    0xFA9B, 0x0219, 0xFF84, 0x019B, 0xF62A, 0x41C0, 0x1618, 0xFD7D, 0xFFB1,
    0xFF0B, 0x01EA, 0x0052, 0x00CC, 0xFF54, 0x002A, 0x024F, 0xFB9D, 0xF80A,
    0xFCEA, 0x0100, 0x0022, 0x00F5, 0xF596, 0x42E0, 0x1234, 0xFF5F, 0xFF6B,
    0xFFEC, 0x010C, 0x024F, 0x0186, 0xFED8, 0x0049, 0x0139, 0xFAF5, 0xF770,
    0xF92F, 0x022E, 0xFF0F, 0x0271, 0xF670, 0x3A50, 0x1F78, 0xFA6E, 0x00F0,
    0xFF7C, 0x029D, 0x00E8, 0x00C6, 0xFF1C, 0x0051, 0x0388, 0xF5E0, 0xF93B,
    0xFCCD, 0x00EE, 0xFFBC, 0x00A0, 0xF756, 0x4650, 0x0F54, 0xFF4A, 0xFFC9,
    0xFF44, 0x0208, 0x003A, 0x007E, 0xFF90, 0x0022, 0x02D6, 0xF939, 0xF955,
    0xFDD7, 0x008C, 0x0018, 0x0018, 0xF70E, 0x4610, 0x0D10, 0x0083, 0xFF9E,
    0x0019, 0x01A4, 0x01F4, 0x02DD, 0xFE98, 0x0105, 0x01BB, 0xFDBC, 0xF46E,
    0xF981, 0xFFE4, 0xFEA0, 0x0260, 0xF2F0, 0x3C48, 0x1F1C, 0xFAC4, 0x0274,
    0xFFF1, 0x02B2, 0x00BF, 0x00F7, 0xFF34, 0x0031, 0x032C, 0xF672, 0xFA07,
    0xFD5B, 0x0010, 0xFFDE, 0x00C0, 0xF830, 0x47D0, 0x0A8E, 0x001D, 0xFFEC,
    0x0002, 0x014C, 0x0053, 0x003E, 0xFFBD, 0x001D, 0x01F9, 0xF7A6, 0xFCE2,
    0xFE8B, 0x0059, 0xFFFE, 0xFFD4, 0xFAFF, 0x47A0, 0x05D7, 0x00DA, 0xFFB9,
    0x0054, 0xFF77, 0x0008, 0xFFF3, 0xFFB4, 0x002B, 0xFF67, 0x023A, 0x0017,
    0x00CC, 0x018D, 0xFFB0, 0x000A, 0x007C, 0x24A8, 0x16C4, 0x00BC, 0xFFEC,
    0x0084, 0xFF22, 0x0009, 0xFF78, 0xFFA5, 0x0033, 0xFF7D, 0x0400, 0xFF3C,
    0x0114, 0x0230, 0xFFAC, 0xFF6B, 0x0149, 0x2ED8, 0x0B72, 0x00AB, 0xFFAD,
    0x005E, 0xFF60, 0x0039, 0xFF2F, 0xFFFA, 0x000B, 0xFF6D, 0x057C, 0xFF54,
    0x008D, 0x01DF, 0xFFF0, 0xFFD6, 0x0045, 0x37F0, 0x0354, 0xFF96, 0xFF48,
    0x001C, 0xFFCC, 0x007D, 0x008B, 0xFFB0, 0x000F, 0xFFCE, 0x0167, 0xFCCC,
    0xFD6B, 0x010A, 0xFFAE, 0x0078, 0xFCF5, 0x2798, 0x2028, 0xFD67, 0x0095,
    0x0054, 0xFEEB, 0x0056, 0x000B, 0xFFAF, 0x0013, 0xFEEA, 0x0407, 0xFCB9,
    0xFE58, 0x019D, 0xFFA6, 0x0031, 0xFD8C, 0x2E20, 0x1708, 0xFE65, 0x000A,
    0x007E, 0xFE6F, 0xFFC1, 0xFF45, 0xFFD7, 0x000D, 0xFE8E, 0x076C, 0xFDA5,
    0xFF81, 0x02BD, 0xFFBA, 0xFFBC, 0xFED2, 0x3390, 0x0BCC, 0xFF88, 0xFF21,
    0x0003, 0x001B, 0x0060, 0x0116, 0xFF58, 0x001B, 0x001E, 0x000D, 0xFB73,
    0xFB7E, 0x012D, 0xFF55, 0x005F, 0xFB94, 0x2A20, 0x24C8, 0xFB5E, 0x0127,
    0xFFFF, 0x002F, 0xFFEA, 0x0153, 0xFF27, 0x002F, 0x0040, 0x00C3, 0xFAB3,
    0xFB58, 0x0209, 0xFF1A, 0xFFB0, 0xFB52, 0x2F80, 0x1FF8, 0xFB0A, 0x0188,
    0x005D, 0xFE45, 0x0024, 0x0011, 0xFFAC, 0x001B, 0xFE55, 0x05F1, 0xFB8C,
    0xFD74, 0x024E, 0xFF8B, 0xFFF8, 0xFCB8, 0x3348, 0x14D8, 0xFD7F, 0xFFF6,
    0x0005, 0x0033, 0x00EF, 0x0183, 0xFF3D, 0x003D, 0x000F, 0xFF39, 0xF9AB,
    0xF98B, 0x012D, 0xFF38, 0x010A, 0xF9BD, 0x2D48, 0x2800, 0xF960, 0x018F,
    0xFFC1, 0x00E9, 0x0003, 0x01CC, 0xFEEC, 0x005A, 0x00BE, 0xFED0, 0xF985,
    0xF972, 0x0297, 0xFECD, 0xFFF4, 0xFA20, 0x3128, 0x2420, 0xF8E8, 0x0210,
    0xFFA9, 0x000E, 0xFFD8, 0x014C, 0xFF25, 0x0059, 0x001A, 0x01FC, 0xF9A8,
    0xFABC, 0x02EA, 0xFED8, 0xFF81, 0xFABE, 0x33E8, 0x1D40, 0xFA76, 0x018F,
    0x000C, 0x0009, 0x01FE, 0x0162, 0xFF55, 0x0041, 0xFFDF, 0xFF48, 0xF7C8,
    0xF875, 0x01A1, 0xFF48, 0x020D, 0xF801, 0x3030, 0x28D0, 0xF816, 0x0183,
    0xFF84, 0x014F, 0x00CE, 0x0154, 0xFEF8, 0x0080, 0x00F1, 0xFD9E, 0xF7D6,
    0xF9DE, 0x02A8, 0xFEBB, 0x00D0, 0xF8C2, 0x35B8, 0x2230, 0xF89A, 0x01DC,
    0xFF54, 0x00DE, 0x00CB, 0x00A6, 0xFF67, 0x006C, 0x00F0, 0xFFF1, 0xF710,
    0xFB41, 0x02BA, 0xFEB5, 0x0020, 0xF853, 0x3898, 0x1CFC, 0xFA55, 0x0191,
    0x00A4, 0xFF3A, 0x032F, 0x0198, 0xFE81, 0x00A5, 0xFF00, 0xFF89, 0xF670,
    0xF74E, 0x038E, 0xFE81, 0x0346, 0xF6D4, 0x3348, 0x2820, 0xF6A2, 0x01BE,
    0xFF2C, 0x01DE, 0x01DF, 0x000C, 0xFF35, 0x007F, 0x0188, 0xFB94, 0xF6D2,
    0xFAD8, 0x0397, 0xFEBB, 0x0170, 0xF8D1, 0x3AE0, 0x1D7C, 0xF87D, 0x0125,
    0xFF38, 0x0155, 0x01A1, 0xFF84, 0xFFEF, 0x0040, 0x0168, 0xFE43, 0xF520,
    0xFDAD, 0x01CB, 0xFF20, 0x007E, 0xF774, 0x3E58, 0x17C8, 0xFBAE, 0x00FB,
    0x0081, 0xFFC6, 0x0358, 0x017C, 0xFE80, 0x00AF, 0xFF87, 0xFE30, 0xF57A,
    0xF819, 0x034C, 0xFE77, 0x0350, 0xF642, 0x3710, 0x2520, 0xF712, 0x01D5,
    0xFF15, 0x02DE, 0x019B, 0xFFB1, 0xFF84, 0x006C, 0x0210, 0xF8CC, 0xF62A,
    0xFD7D, 0x0219, 0xFEEF, 0x019C, 0xF83E, 0x41C0, 0x1618, 0xFA9B, 0x00F7,
    0xFF0B, 0x024F, 0x00F5, 0xFF6B, 0x0022, 0x002A, 0x01EA, 0xFB9D, 0xF596,
    0xFF5F, 0x0100, 0xFF54, 0x0052, 0xF80A, 0x42E0, 0x1234, 0xFCEA, 0x00CB,
    0xFFEC, 0x0139, 0x0271, 0x00F0, 0xFF0F, 0x0049, 0x010C, 0xFAF5, 0xF670,
    0xFA6E, 0x022E, 0xFED8, 0x024F, 0xF770, 0x3A50, 0x1F78, 0xF92F, 0x0186,
    0xFF7C, 0x0388, 0x00A0, 0xFFC9, 0xFFBC, 0x0051, 0x029D, 0xF5E0, 0xF756,
    0xFF4A, 0x00EE, 0xFF1C, 0x00E8, 0xF93B, 0x4650, 0x0F54, 0xFCCD, 0x00C6,
    0xFF44, 0x02D6, 0x0018, 0xFF9E, 0x0018, 0x0022, 0x0208, 0xF939, 0xF70E,
    0x0083, 0x008C, 0xFF90, 0x003A, 0xF954, 0x4610, 0x0D10, 0xFDD7, 0x007D,
    0x0019, 0x01BB, 0x0260, 0x0274, 0xFEA0, 0x0105, 0x01A4, 0xFDBC, 0xF2F0,
    0xFAC4, 0xFFE4, 0xFE98, 0x01F4, 0xF46E, 0x3C48, 0x1F1C, 0xF981, 0x02DD,
    0xFFF1, 0x032C, 0x00C0, 0xFFEC, 0xFFDE, 0x0031, 0x02B2, 0xF672, 0xF830,
    0x001D, 0x0010, 0xFF34, 0x00BF, 0xFA07, 0x47D0, 0x0A8E, 0xFD5B, 0x00F7,
    0x0002, 0x01F9, 0xFFD4, 0xFFB9, 0xFFFE, 0x001D, 0x014C, 0xF7A6, 0xFAFF,
    0x00DA, 0x0059, 0xFFBD, 0x0053, 0xFCE2, 0x47A0, 0x05D7, 0xFE8B, 0x003E,
    0x004C, 0xFF8C, 0x000F, 0xFFEA, 0xFFBB, 0x002C, 0xFF69, 0x0205, 0xFFE4,
    0x00B2, 0x019A, 0xFFAF, 0x000B, 0x00F6, 0x2408, 0x174C, 0x00D2, 0xFFD8,
    0x0039, 0xFF67, 0x0019, 0xFF6C, 0xFFB6, 0x0038, 0x005B, 0x0253, 0xFED4,
    0x012E, 0x0288, 0xFF9B, 0xFF4A, 0x0434, 0x2D60, 0x0B24, 0x00B5, 0xFF61,
    0x0014, 0xFFD2, 0xFF7E, 0xFF40, 0xFFD6, 0x001A, 0x011C, 0x033E, 0xFC24,
    0x00C9, 0x03B9, 0xFFC1, 0xFF65, 0x04C5, 0x3420, 0x0573, 0x00E3, 0xFE0C,
    0x0017, 0xFFCC, 0x007B, 0x0087, 0xFFB2, 0x000E, 0xFFCF, 0x0146, 0xFCD0,
    0xFD6C, 0x0108, 0xFFAB, 0x007A, 0xFD3B, 0x2720, 0x2078, 0xFD6B, 0x009C,
    0x003B, 0xFF1E, 0x005E, 0xFFFA, 0xFFBE, 0x0011, 0xFF02, 0x032E, 0xFCE0,
    0xFE3C, 0x01BE, 0xFF8C, 0x0029, 0xFF90, 0x2BF0, 0x17E8, 0xFE6D, 0xFFEB,
    0x0041, 0xFE9B, 0xFF98, 0xFF3E, 0xFFD7, 0x001C, 0xFF63, 0x052F, 0xFD99,
    0xFE9B, 0x047B, 0xFF21, 0x0057, 0x0192, 0x2D48, 0x1124, 0xFF8A, 0xFE1E,
    0x0005, 0x000B, 0x0069, 0x00FC, 0xFF62, 0x0018, 0x0008, 0x0009, 0xFB79,
    0xFB96, 0x0121, 0xFF5D, 0x0076, 0xFBBA, 0x29D8, 0x2500, 0xFB49, 0x0121,
    0x0001, 0x0010, 0x0048, 0x00EF, 0xFF54, 0x0024, 0x0022, 0x0050, 0xFAC5,
    0xFB6A, 0x020A, 0xFF28, 0xFFDC, 0xFC7E, 0x2E50, 0x20B8, 0xFAB6, 0x015C,
    0x0035, 0xFE68, 0x0026, 0x001E, 0xFFCF, 0x0018, 0xFE90, 0x0494, 0xFBC1,
    0xFCF5, 0x02AE, 0xFF52, 0xFFCA, 0x0052, 0x2EF8, 0x17AC, 0xFD0E, 0xFF8E,
    0x000C, 0x0038, 0x00EB, 0x016F, 0xFF53, 0x0034, 0xFFF1, 0xFF27, 0xF99B,
    0xF9AF, 0x0109, 0xFF51, 0x0138, 0xF9E8, 0x2D10, 0x2830, 0xF945, 0x0177,
    0xFFCB, 0x00F5, 0x0047, 0x016B, 0xFF1E, 0x0046, 0x006B, 0xFE48, 0xF975,
    0xF9C7, 0x0296, 0xFEF0, 0x006A, 0xFB46, 0x3090, 0x2460, 0xF856, 0x01C3,
    0xFF87, 0x0092, 0xFFEC, 0x011C, 0xFF5D, 0x0044, 0x0036, 0x002E, 0xF997,
    0xFA77, 0x0361, 0xFED6, 0xFFAD, 0xFD3F, 0x3278, 0x1EA0, 0xF957, 0x0138,
    0x0009, 0x002C, 0x01D9, 0x0159, 0xFF6C, 0x0031, 0xFFC9, 0xFF1E, 0xF7D4,
    0xF8BE, 0x016D, 0xFF67, 0x0227, 0xF861, 0x2FD0, 0x28F8, 0xF7E4, 0x0176,
    0xFF99, 0x0199, 0x00EB, 0x00E3, 0xFF35, 0x0063, 0x0066, 0xFCE2, 0xF7A0,
    0xFA7F, 0x02C5, 0xFED8, 0x0142, 0xFA8E, 0x34B8, 0x22E0, 0xF73C, 0x01BE,
    0xFEEF, 0x0262, 0x0061, 0x002E, 0xFFAA, 0x0049, 0x013D, 0xFCE9, 0xF764,
    0xFBA1, 0x0358, 0xFEC5, 0xFFF5, 0xFC00, 0x37C0, 0x1D60, 0xF836, 0x0199,
    0x004A, 0x0020, 0x02A4, 0x0149, 0xFF21, 0x0051, 0xFF6C, 0xFE3D, 0xF6E2,
    0xF850, 0x025C, 0xFF16, 0x0309, 0xF7F0, 0x32C0, 0x27E0, 0xF6CA, 0x018A,
    0xFFBF, 0x0225, 0x017C, 0xFFAF, 0xFFBA, 0x004E, 0x0095, 0xF9EE, 0xF702,
    0xFC9F, 0x02D8, 0xFEAE, 0x0195, 0xFBE9, 0x39E8, 0x1D94, 0xF676, 0x01D1,
    0xFF04, 0x035E, 0x0029, 0xFF5F, 0x002C, 0x0025, 0x01FC, 0xF92C, 0xF6D8,
    0xFEF4, 0x0206, 0xFF08, 0xFF4C, 0xFDA9, 0x3D28, 0x1724, 0xF8CB, 0x01B7,
    0x001C, 0x00D9, 0x02B7, 0x0119, 0xFF0B, 0x0062, 0xFFC7, 0xFCFF, 0xF5EC,
    0xF936, 0x025C, 0xFEFE, 0x032C, 0xF790, 0x3660, 0x24E8, 0xF6DA, 0x01A8,
    0xFFFE, 0x0317, 0x00A1, 0xFF69, 0x0013, 0x0033, 0x00A2, 0xF716, 0xF732,
    0xFFA0, 0x0185, 0xFECB, 0x019F, 0xFC92, 0x4030, 0x15A0, 0xF7D4, 0x01EC,
    0xFF70, 0x03D0, 0xFEF8, 0xFFC8, 0x0049, 0x000A, 0x021F, 0xF610, 0xF875,
    0x0158, 0x0077, 0xFF57, 0xFE8A, 0x0016, 0x4150, 0x0FD2, 0xFA64, 0x01BD,
    0xFFFD, 0x01C3, 0x0213, 0x00C7, 0xFEFA, 0x006E, 0x004D, 0xFB0A, 0xF64A,
    0xFB03, 0x023A, 0xFEC1, 0x0298, 0xF888, 0x3980, 0x1FE4, 0xF82F, 0x01AB,
    0x00A0, 0x036E, 0xFF8C, 0xFFBB, 0x001F, 0x002F, 0x00AF, 0xF48E, 0xF8C5,
    0x014F, 0x0095, 0xFED2, 0x0109, 0xFE34, 0x44A0, 0x0E12, 0xF9F7, 0x01BA,
    0x005E, 0x0358, 0xFE4A, 0x0024, 0x0042, 0xFFFB, 0x012A, 0xF48E, 0xFA2E,
    0x02AB, 0xFFB2, 0xFF97, 0xFED5, 0x01C1, 0x4450, 0x0A18, 0xFB48, 0x017B,
    0x0070, 0x0172, 0x02EC, 0x0234, 0xFE60, 0x013F, 0x0121, 0xFD63, 0xF200,
    0xFB1F, 0x0086, 0xFE83, 0x02A5, 0xF4DA, 0x3C50, 0x1F04, 0xF951, 0x0290,
    0x00F6, 0x034C, 0xFFFB, 0xFFE4, 0x004F, 0x0041, 0x014A, 0xF37C, 0xFA66,
    0x01BD, 0xFF94, 0xFE9D, 0x0078, 0xFF23, 0x4810, 0x0660, 0xFCA8, 0x0183,
    0x017D, 0x0221, 0xFE4B, 0x005E, 0x0007, 0xFFF8, 0xFFBE, 0xF37E, 0xFDBA,
    0x020A, 0xFF8C, 0xFFFA, 0xFF84, 0x02E1, 0x48B0, 0x0144, 0xFE52, 0x0083,
    0x0043, 0xFF9C, 0x0025, 0xFFE1, 0xFFB9, 0x0027, 0xFF78, 0x01CC, 0xFFCD,
    0x00A1, 0x018F, 0xFFAB, 0x0011, 0x01CB, 0x22A8, 0x17DC, 0x00E8, 0x0004,
    0x0022, 0xFFC7, 0xFFD1, 0xFFBC, 0xFFAB, 0x0036, 0x0039, 0x0059, 0xFF81,
    0x0158, 0x02A0, 0xFF91, 0xFF74, 0x09C2, 0x2920, 0x0AC6, 0x00B5, 0xFF3E,
    0x0011, 0xFF6A, 0x002F, 0xFFBB, 0xFFC2, 0x0016, 0xFFB1, 0x0339, 0xFD2B,
    0xFF80, 0x0325, 0xFFD5, 0x0051, 0x0FF2, 0x2AD8, 0x053D, 0xFF5F, 0xFE80,
    0x0015, 0xFFCB, 0x007D, 0x0077, 0xFFB5, 0x000D, 0xFFCD, 0x0121, 0xFCEA,
    0xFD6A, 0x0106, 0xFFAE, 0x0082, 0xFD8E, 0x2658, 0x20F0, 0xFD82, 0x009A,
    0x0028, 0xFF48, 0x004A, 0xFFF7, 0xFFD4, 0x000F, 0xFF07, 0x0232, 0xFD82,
    0xFE3A, 0x01C0, 0xFF6E, 0x0045, 0x01E4, 0x28E8, 0x189C, 0xFEE2, 0xFFBD,
    0x0026, 0xFE78, 0xFFDB, 0xFFC0, 0xFFD4, 0x001B, 0xFF84, 0x03B7, 0xFE7F,
    0xFE8B, 0x03E0, 0xFF0B, 0x0152, 0x08F0, 0x24B8, 0x1210, 0xFFF6, 0xFDAA,
    0x0007, 0xFFFB, 0x007B, 0x00DB, 0xFF6F, 0x0016, 0xFFF5, 0x0005, 0xFB80,
    0xFBA8, 0x010A, 0xFF65, 0x009C, 0xFBD3, 0x2960, 0x2558, 0xFB5A, 0x010D,
    0x0008, 0xFFF6, 0x0084, 0x0098, 0xFF89, 0x0018, 0xFFE4, 0xFFF8, 0xFB03,
    0xFB8F, 0x01EE, 0xFF38, 0x0041, 0xFD8A, 0x2CC0, 0x2148, 0xFAEE, 0x00F4,
    0x002A, 0xFEA5, 0x0078, 0xFFE0, 0x0017, 0x000C, 0xFEE6, 0x020A, 0xFC78,
    0xFD09, 0x028A, 0xFF26, 0x004A, 0x040A, 0x2B40, 0x18B4, 0xFD62, 0xFEEB,
    0x0008, 0x0041, 0x00F2, 0x014F, 0xFF6C, 0x002D, 0xFFCE, 0xFF1E, 0xF9AA,
    0xF9C8, 0x00F2, 0xFF60, 0x016D, 0xFA21, 0x2CA0, 0x2878, 0xF932, 0x0158,
    0xFFE1, 0x00F3, 0x0072, 0x0117, 0xFF43, 0x0032, 0xFFE3, 0xFDD9, 0xF9C0,
    0xFA0D, 0x0294, 0xFF26, 0x0138, 0xFC4E, 0x2F78, 0x2498, 0xF845, 0x0116,
    0xFFA5, 0x00D7, 0x0073, 0x0041, 0xFFDB, 0x0024, 0x0010, 0xFD4F, 0xFB4F,
    0xF9AF, 0x046B, 0xFE96, 0x0144, 0xFEEC, 0x31F0, 0x1DE0, 0xF96E, 0x000A,
    0x000C, 0x0038, 0x01C6, 0x014E, 0xFF7D, 0x0026, 0xFFA2, 0xFF1A, 0xF7EA,
    0xF8E3, 0x0142, 0xFF88, 0x0246, 0xF8C0, 0x2F20, 0x2978, 0xF7C0, 0x015B,
    0xFFE2, 0x01A1, 0x00EB, 0x00AB, 0xFF3D, 0x0049, 0xFF43, 0xFC68, 0xF806,
    0xFAF0, 0x02E8, 0xFF2E, 0x027E, 0xFC6C, 0x32E8, 0x23D0, 0xF614, 0x00F9,
    0xFF5A, 0x02F0, 0x000C, 0xFFB8, 0xFFB6, 0x002D, 0xFFB4, 0xFAA2, 0xF921,
    0xFBC1, 0x0449, 0xFF1D, 0x022D, 0xFF05, 0x3620, 0x1D28, 0xF6F0, 0x0007,
    0x0049, 0x004F, 0x0267, 0x013D, 0xFF4E, 0x0038, 0xFF2E, 0xFE3D, 0xF702,
    0xF899, 0x0213, 0xFF41, 0x0334, 0xF873, 0x31D0, 0x2878, 0xF686, 0x016D,
    0x008E, 0x01CC, 0x0142, 0xFF89, 0xFFBA, 0x0043, 0xFE52, 0xF9A6, 0xF801,
    0xFD14, 0x0349, 0xFEC8, 0x039C, 0xFE8F, 0x3720, 0x1F40, 0xF3EC, 0x0144,
    0x003A, 0x0356, 0xFEFF, 0xFF82, 0x000D, 0x001E, 0xFEC3, 0xF740, 0xF9D0,
    0xFF99, 0x02EB, 0xFF24, 0x01A2, 0x03C3, 0x3930, 0x17A0, 0xF52C, 0x00EE,
    0x0047, 0x00EF, 0x027D, 0x011B, 0xFF23, 0x0051, 0xFF2F, 0xFD20, 0xF61C,
    0xF94F, 0x0241, 0xFF18, 0x0381, 0xF84C, 0x34F8, 0x2618, 0xF63E, 0x0193,
    0x0154, 0x0224, 0x0044, 0xFF31, 0x0018, 0x0048, 0xFD5B, 0xF732, 0xF8F1,
    0x0046, 0x0257, 0xFE76, 0x03F7, 0x00B9, 0x3C90, 0x1750, 0xF3A0, 0x01F7,
    0x0169, 0x024A, 0xFE2F, 0x0006, 0x004E, 0x0003, 0xFDDB, 0xF480, 0xFCD9,
    0x0234, 0x00DF, 0xFF2D, 0xFFBD, 0x0A36, 0x3AF0, 0x0FD6, 0xF578, 0x0225,
    0x002C, 0x01FC, 0x01D8, 0x00C6, 0xFEF6, 0x006C, 0xFF4D, 0xFB7E, 0xF642,
    0xFB20, 0x0244, 0xFED6, 0x0346, 0xF95C, 0x37D8, 0x2168, 0xF71C, 0x0192,
    0x0218, 0x022E, 0xFF30, 0xFF97, 0x0025, 0x005D, 0xFC99, 0xF5B2, 0xFA5B,
    0x0249, 0x0131, 0xFE38, 0x036E, 0x02FE, 0x4110, 0x0EFE, 0xF538, 0x026A,
    0x02B1, 0x00A8, 0xFE59, 0x0034, 0x0078, 0xFFF0, 0xFC91, 0xF428, 0xFE6A,
    0x038F, 0xFFA4, 0xFF41, 0xFEF3, 0x0DF4, 0x3BC8, 0x0AEA, 0xF5BE, 0x02C8,
    0x00BD, 0x0170, 0x033F, 0x021E, 0xFE57, 0x0188, 0xFFFF, 0xFD8A, 0xF1CE,
    0xFA83, 0x0128, 0xFEA4, 0x03E4, 0xF550, 0x3A98, 0x20E0, 0xF878, 0x01D0,
    0x0234, 0x030F, 0xFF73, 0xFFAF, 0x0047, 0x00B5, 0xFC83, 0xF51E, 0xFB81,
    0x02AD, 0xFFC5, 0xFDDE, 0x029E, 0x02D9, 0x47E0, 0x043D, 0xF982, 0x0218,
    0x0378, 0xFFC0, 0xFE73, 0x00B6, 0x001F, 0xFFFC, 0xFAC3, 0xF526, 0x0089,
    0x0294, 0xFEB2, 0xFFBD, 0xFE79, 0x0FC2, 0x4150, 0xFE80, 0xFBF3, 0x020A,
    0x0038, 0xFFAF, 0x0016, 0xFFFC, 0xFFBD, 0x0029, 0xFF53, 0x0198, 0x0008,
    0x00A9, 0x0187, 0xFF90, 0x0044, 0x0228, 0x20D8, 0x1900, 0x010D, 0x001C,
    0x003B, 0xFFAA, 0xFFCC, 0x0013, 0xFFE2, 0x0034, 0xFDD9, 0xFFE4, 0x00F2,
    0x01CA, 0x020E, 0xFF54, 0x0118, 0x10C4, 0x21B8, 0x0A88, 0x00D3, 0xFF5D,
    0x0003, 0xFFAB, 0xFFB7, 0xFFD6, 0x000B, 0x0008, 0xFF1B, 0xFF8B, 0x0051,
    0x004C, 0x031C, 0xFF7E, 0x0259, 0x1D34, 0x1B40, 0x052E, 0x006C, 0xFE6B,
    0x0010, 0xFFCE, 0x007A, 0x0071, 0xFFC1, 0x000C, 0xFFC6, 0x0101, 0xFD0C,
    0xFD6C, 0x00FE, 0xFFAA, 0x0093, 0xFDC6, 0x2580, 0x2170, 0xFDA1, 0x009A,
    0x001C, 0xFF71, 0x002F, 0x0002, 0xFFE2, 0x000D, 0xFEE0, 0x0176, 0xFE5B,
    0xFE77, 0x016D, 0xFF43, 0x008C, 0x037F, 0x2550, 0x1980, 0xFFCF, 0xFFD1,
    0x0015, 0xFEC4, 0xFFB8, 0x001C, 0xFFE5, 0x0016, 0xFE33, 0x025E, 0x0075,
    0xFFA3, 0x02A7, 0xFEA9, 0x0218, 0x113C, 0x1BD0, 0x10DC, 0x0114, 0xFE4F,
    0x0006, 0xFFEF, 0x0088, 0x00C1, 0xFF84, 0x0011, 0xFFD7, 0x0011, 0xFB8D,
    0xFBBA, 0x00E7, 0xFF71, 0x00BD, 0xFBF7, 0x28C0, 0x25C0, 0xFB6A, 0x0105,
    0x000D, 0xFFE2, 0x0097, 0x0061, 0xFFB7, 0x000D, 0xFFA6, 0xFFB8, 0xFB81,
    0xFBC5, 0x01AA, 0xFF38, 0x00B0, 0xFE40, 0x2AB8, 0x21F0, 0xFB99, 0x00A2,
    0x002D, 0xFED6, 0x00C2, 0xFF88, 0x0067, 0xFFFF, 0xFEC0, 0xFFC8, 0xFDEA,
    0xFD23, 0x0239, 0xFEC5, 0x013A, 0x0673, 0x2760, 0x198C, 0xFEA8, 0xFE7A,
    0x000F, 0x002E, 0x00F3, 0x0138, 0xFF84, 0x0024, 0xFFAF, 0xFF35, 0xF9C6,
    0xF9E5, 0x00BD, 0xFF77, 0x018D, 0xFA2E, 0x2C08, 0x28D0, 0xF94E, 0x0148,
    0xFFF1, 0x00B5, 0x009E, 0x00C8, 0xFF6A, 0x0021, 0xFF70, 0xFDE3, 0xFA4E,
    0xFA6B, 0x0237, 0xFF62, 0x01F0, 0xFCE3, 0x2D90, 0x2518, 0xF8DE, 0x006A,
    0x0008, 0xFFD8, 0x01F1, 0xFEF5, 0x007E, 0xFFFA, 0x0001, 0xFAFF, 0xFDBD,
    0xF8D6, 0x050B, 0xFE4D, 0x02F8, 0xFFAD, 0x2FC8, 0x1DF0, 0xFAAC, 0xFECA,
    0x000F, 0x002D, 0x01B0, 0x014D, 0xFF8C, 0x001F, 0xFF89, 0xFF45, 0xF811,
    0xF8F1, 0x011C, 0xFF98, 0x0254, 0xF8DE, 0x2E60, 0x29F0, 0xF7B8, 0x015A,
    0x0005, 0x0160, 0x00EC, 0x00AF, 0xFF3A, 0x0036, 0xFE56, 0xFCBC, 0xF8B1,
    0xFAF1, 0x02BC, 0xFF98, 0x03C8, 0xFD2B, 0x3050, 0x2550, 0xF5FC, 0xFFF8,
    0xFFFF, 0x021F, 0x007B, 0xFF51, 0xFFC6, 0x0019, 0xFD62, 0xFA3D, 0xFB08,
    0xFC2A, 0x044B, 0xFF7F, 0x054B, 0x014A, 0x31D0, 0x1EB4, 0xF658, 0xFE2D,
    0x003A, 0x0048, 0x022D, 0x0149, 0xFF6A, 0x0029, 0xFF10, 0xFEC2, 0xF728,
    0xF8A6, 0x01D4, 0xFF67, 0x0338, 0xF88F, 0x3088, 0x2960, 0xF69E, 0x0148,
    0x00C8, 0x014B, 0x013A, 0xFFE1, 0xFF62, 0x004C, 0xFCDB, 0xFB16, 0xF889,
    0xFC78, 0x03AA, 0xFF23, 0x057C, 0xFEC2, 0x33B8, 0x2250, 0xF300, 0x0020,
    0x018B, 0x016B, 0xFF1A, 0xFF8C, 0xFFDE, 0x0021, 0xF9B5, 0xF99A, 0xFC3B,
    0x0055, 0x0330, 0xFF79, 0x06E0, 0x06F4, 0x31E0, 0x1B04, 0xF236, 0xFEED,
    0x0067, 0x00A8, 0x026F, 0x012D, 0xFF46, 0x0049, 0xFEC6, 0xFDDF, 0xF63E,
    0xF937, 0x01E1, 0xFF33, 0x03AB, 0xF858, 0x3338, 0x27C0, 0xF60C, 0x0192,
    0x01E9, 0x010E, 0x00CF, 0xFF3C, 0xFFA3, 0x007A, 0xFB03, 0xF9E7, 0xF8E1,
    0xFF55, 0x038E, 0xFE82, 0x0671, 0x00FF, 0x37F8, 0x1C74, 0xF0B2, 0x0125,
    0x0322, 0xFF58, 0xFEC3, 0xFFCC, 0x003F, 0x0012, 0xF6AC, 0xF948, 0xFFCF,
    0x0285, 0x01D9, 0xFF09, 0x0687, 0x0E5A, 0x31E8, 0x13EC, 0xEFC0, 0x0108,
    0x0074, 0x0185, 0x01F0, 0x00D9, 0xFF32, 0x004D, 0xFEA9, 0xFC75, 0xF65A,
    0xFACD, 0x01E6, 0xFF0B, 0x03A1, 0xF97C, 0x3590, 0x23B0, 0xF6BA, 0x0172,
    0x02BB, 0x014B, 0xFFD7, 0xFF66, 0xFF82, 0x00D5, 0xF9EF, 0xF97A, 0xF905,
    0x0197, 0x02F3, 0xFDDB, 0x05EB, 0x030D, 0x3C70, 0x1544, 0xF0BA, 0x022F,
    0x048B, 0xFD82, 0xFF0A, 0xFFEB, 0x0083, 0x000D, 0xF500, 0xFA0F, 0x00F3,
    0x03A8, 0x00D9, 0xFEB6, 0x059F, 0x12A4, 0x3260, 0x0FA2, 0xEDF0, 0x0304,
    0x00C7, 0x0183, 0x0341, 0x023B, 0xFEA3, 0x0192, 0xFF3D, 0xFE1E, 0xF1F4,
    0xF971, 0x01BD, 0xFE4D, 0x0476, 0xF5EC, 0x3780, 0x2450, 0xF70E, 0x01F9,
    0x02FC, 0x0310, 0x003B, 0xFF5D, 0xFFD3, 0x012F, 0xF980, 0xFB0A, 0xF776,
    0x0214, 0x0176, 0xFD20, 0x0389, 0x0308, 0x4490, 0x0A40, 0xF44C, 0x030B,
    0x05A4, 0xFCD3, 0xFF44, 0x001C, 0x0076, 0x003C, 0xF40C, 0xFBB1, 0x00F5,
    0x03A6, 0xFFAE, 0xFE41, 0x01A1, 0x1A1C, 0x34B0, 0x0418, 0xF190, 0x051B,
    0x0033, 0xFFC5, 0x001C, 0xFFFF, 0xFFC1, 0x0029, 0xFF44, 0x0177, 0x0031,
    0x00A5, 0x0190, 0xFF76, 0x0062, 0x0241, 0x1EF8, 0x1A60, 0x014F, 0x001E,
    0x0030, 0xFF94, 0xFFE5, 0x0030, 0x0003, 0x002A, 0xFD94, 0x0017, 0x0227,
    0x0232, 0x0158, 0xFEE8, 0x03B7, 0x0D9A, 0x1CD4, 0x0E7C, 0x00C8, 0x004B,
    0xFFFF, 0xFF23, 0x0078, 0x0073, 0x000E, 0x0006, 0xFCA2, 0x00EE, 0x03B0,
    0x0132, 0x00BF, 0xFF7F, 0x0F32, 0x1550, 0x1194, 0x0886, 0xFFFC, 0xFE99,
    0x000F, 0xFFCD, 0x0074, 0x0069, 0xFFC2, 0x000A, 0xFFBD, 0x00F3, 0xFD36,
    0xFD6B, 0x00FA, 0xFFAC, 0x009F, 0xFDEA, 0x2488, 0x2218, 0xFDC2, 0x009B,
    0x0011, 0xFFA5, 0x0022, 0x0011, 0xFFEA, 0x000A, 0xFED2, 0x00EF, 0xFEE7,
    0xFEE6, 0x00F7, 0xFF13, 0x00F6, 0x0374, 0x21E8, 0x1B1C, 0x00F7, 0x002A,
    0x0007, 0xFF1A, 0x000B, 0x0026, 0xFFD4, 0x000B, 0xFCF1, 0x00CC, 0x01F1,
    0x01A4, 0x0179, 0xFE44, 0x071B, 0x0BCC, 0x185C, 0x129C, 0x02D9, 0xFF0A,
    0x0008, 0xFFDC, 0x0090, 0x00A7, 0xFFA1, 0x000E, 0xFFB2, 0x0031, 0xFBA8,
    0xFBC7, 0x00B8, 0xFF7F, 0x00E6, 0xFBF2, 0x2810, 0x2638, 0xFB92, 0x00F8,
    0x0009, 0xFFE2, 0x008E, 0x0049, 0xFFD2, 0x0008, 0xFF5F, 0xFFCE, 0xFBE6,
    0xFC14, 0x012A, 0xFF31, 0x0104, 0xFE89, 0x2848, 0x22D8, 0xFC9F, 0x0092,
    0x0019, 0xFF4E, 0x0088, 0xFFC8, 0x004A, 0xFFFE, 0xFE42, 0xFEEF, 0xFEAE,
    0xFE07, 0x010B, 0xFE83, 0x0241, 0x05DB, 0x2370, 0x1B98, 0x0082, 0xFEE0,
    0x0012, 0x000A, 0x0102, 0x011D, 0xFFA0, 0x0020, 0xFFA0, 0xFF6C, 0xF9E8,
    0xFA00, 0x006E, 0xFF89, 0x018E, 0xFA2D, 0x2B40, 0x2950, 0xF98A, 0x014B,
    0xFFF7, 0x0060, 0x00A0, 0x00A2, 0xFF99, 0x0015, 0xFF2E, 0xFE82, 0xFADC,
    0xFAE6, 0x0160, 0xFF7C, 0x021E, 0xFCFF, 0x2B10, 0x25F0, 0xFA13, 0x003B,
    0x000A, 0xFFBA, 0x016D, 0xFF8F, 0x003C, 0xFFF5, 0xFECD, 0xFCAF, 0xFD3E,
    0xFAD3, 0x02C5, 0xFEEC, 0x0379, 0x00FC, 0x2A70, 0x2028, 0xFC4A, 0xFE76,
    0x0016, 0x0009, 0x018D, 0x015B, 0xFF9C, 0x0018, 0xFF8B, 0xFFA4, 0xF853,
    0xF8E6, 0x00D8, 0xFFBB, 0x0239, 0xF8C2, 0x2D68, 0x2AA0, 0xF7EC, 0x015C,
    0xFFF8, 0x00D3, 0x00FC, 0x00C8, 0xFF6B, 0x001A, 0xFE70, 0xFDCD, 0xF94A,
    0xFAAB, 0x01DF, 0xFFEB, 0x03BB, 0xFC9F, 0x2D88, 0x2728, 0xF744, 0xFF9E,
    0xFFD0, 0x012E, 0x00C5, 0xFFB8, 0xFF89, 0x0016, 0xFBE7, 0xFC16, 0xFB73,
    0xFCEA, 0x0358, 0x0067, 0x0820, 0x01F1, 0x2C60, 0x2180, 0xF6FC, 0xFBE2,
    0xFFFE, 0x003C, 0x01C5, 0x0139, 0xFFA7, 0xFFF5, 0xFF6E, 0xFFB2, 0xF794,
    0xF89F, 0x0197, 0xFFCA, 0x0293, 0xF89D, 0x2EB8, 0x2A40, 0xF744, 0x010F,
    0x004F, 0x00E2, 0x0157, 0x0064, 0xFF58, 0x001F, 0xFD9A, 0xFD0A, 0xF872,
    0xFB45, 0x0310, 0xFFC6, 0x04E8, 0xFD3D, 0x3050, 0x25E0, 0xF486, 0xFF90,
    0x0124, 0x00A4, 0xFFC3, 0xFF97, 0xFF63, 0x0031, 0xF7BE, 0xFB94, 0xFD30,
    0xFF6D, 0x0473, 0x0092, 0x0D04, 0x052C, 0x2D30, 0x1EE0, 0xF1EE, 0xFA2C,
    0x006B, 0x005C, 0x023C, 0x015E, 0xFF77, 0x003B, 0xFE9D, 0xFEBF, 0xF6BC,
    0xF8C6, 0x016F, 0xFF3E, 0x0394, 0xF818, 0x3118, 0x29B0, 0xF640, 0x01A8,
    0x0147, 0x00AC, 0x018E, 0xFFBF, 0xFF61, 0x003B, 0xFC26, 0xFC0D, 0xF7E2,
    0xFD3B, 0x03A5, 0xFF50, 0x05A8, 0xFF10, 0x33B0, 0x2290, 0xF152, 0x0096,
    0x0342, 0xFE96, 0xFF23, 0xFF98, 0xFF8D, 0x004B, 0xF392, 0xFC6A, 0xFFE2,
    0x01DD, 0x0458, 0xFFFC, 0x0F02, 0x0AD0, 0x2D50, 0x19C4, 0xED04, 0xFB9E,
    0x0090, 0x00ED, 0x01F9, 0x0103, 0xFF94, 0x001E, 0xFE73, 0xFD92, 0xF6E2,
    0xFA34, 0x0141, 0xFF31, 0x0385, 0xF929, 0x32A0, 0x26A0, 0xF6BC, 0x019E,
    0x0234, 0x00FD, 0x0128, 0xFF9D, 0xFEFD, 0x0082, 0xFB58, 0xFB47, 0xF726,
    0xFF3C, 0x03F4, 0xFE94, 0x04D0, 0x0171, 0x3738, 0x1DA0, 0xF006, 0x01E7,
    0x0526, 0xFCE6, 0xFF3B, 0xFF5A, 0xFFB5, 0x006A, 0xF20A, 0xFD2D, 0xFF81,
    0x0410, 0x03C1, 0xFF5C, 0x0DF4, 0x0E20, 0x30E0, 0x1514, 0xE880, 0xFED3,
    0x007A, 0x0151, 0x0361, 0x0212, 0xFF47, 0x011D, 0xFEE3, 0xFEEA, 0xF2BC,
    0xF7DE, 0x0268, 0xFDDE, 0x0450, 0xF6EA, 0x33C0, 0x2860, 0xF5B6, 0x02A0,
    0x02DE, 0x02DE, 0x0134, 0x0118, 0xFE9F, 0x0166, 0xFAEE, 0xFBE2, 0xF53E,
    0xFE92, 0x0287, 0xFD02, 0x0112, 0x0525, 0x3BA0, 0x1640, 0xF14E, 0x0465,
    0x071C, 0xFC36, 0xFF91, 0xFED6, 0xFFAA, 0x00B5, 0xF348, 0xFD47, 0xFD94,
    0x065C, 0x0391, 0xFD58, 0x0536, 0x1B58, 0x3710, 0x0775, 0xE4B0, 0x04BC,
    0x002F, 0xFFC3, 0x001C, 0x0003, 0xFFBF, 0x002D, 0xFF48, 0x017C, 0x005E,
    0x0094, 0x017C, 0xFF63, 0x0061, 0x0207, 0x1D48, 0x1BD8, 0x01AE, 0x0037,
    0x001C, 0xFFAB, 0x001C, 0x001F, 0xFFC8, 0x001D, 0xFE4E, 0x0127, 0x0222,
    0x022D, 0x0199, 0xFEFB, 0x02FE, 0x0735, 0x1A08, 0x13B8, 0x027F, 0x014E,
    0xFFFD, 0xFF31, 0x005F, 0x009B, 0x004E, 0x0012, 0xFF44, 0xFE0F, 0x06F3,
    0x0504, 0xFEDE, 0xFEA8, 0x1294, 0x1348, 0x0F14, 0x0591, 0xFF1F, 0xFF09,
    0x000C, 0xFFCE, 0x006E, 0x006D, 0xFFC8, 0x000C, 0xFFB2, 0x00EB, 0xFD52,
    0xFD65, 0x00F6, 0xFFA8, 0x00A5, 0xFDF5, 0x2398, 0x22C8, 0xFDE5, 0x00A2,
    0x000A, 0xFFCC, 0x0020, 0x001F, 0xFFE2, 0x0009, 0xFED9, 0x009A, 0xFF36,
    0xFF30, 0x00A8, 0xFEE4, 0x00FA, 0x02F1, 0x1F14, 0x1CF0, 0x0203, 0x00A9,
    0x0001, 0xFF95, 0x0044, 0x003F, 0xFFD2, 0x0003, 0xFD81, 0xFFF9, 0x029A,
    0x0270, 0xFFEE, 0xFDF3, 0x06A1, 0x06EE, 0x1730, 0x1540, 0x0364, 0x024A,
    0x000A, 0xFFC8, 0x0094, 0x009C, 0xFFB4, 0x000C, 0xFF95, 0x005F, 0xFBBB,
    0xFBC5, 0x008A, 0xFF81, 0x00EF, 0xFBE9, 0x2760, 0x26C0, 0xFBCA, 0x00FC,
    0x0006, 0xFFE1, 0x0074, 0x005B, 0xFFDD, 0x0005, 0xFF28, 0x001F, 0xFC36,
    0xFC4E, 0x0099, 0xFF19, 0x0112, 0xFE5E, 0x25E0, 0x2418, 0xFDA7, 0x00D3,
    0x0003, 0xFFD4, 0x003B, 0x0021, 0x000F, 0x0001, 0xFDE9, 0xFED6, 0xFF12,
    0xFEEF, 0xFFA2, 0xFE2A, 0x024F, 0x04FC, 0x1F84, 0x1CFC, 0x02D4, 0x0092,
    0x0016, 0xFFE9, 0x0106, 0x010D, 0xFFC3, 0x0018, 0xFF9B, 0xFFB2, 0xFA08,
    0xFA06, 0x0011, 0xFF9E, 0x017A, 0xFA11, 0x2A80, 0x29E0, 0xF9C9, 0x015B,
    0xFFFF, 0x0016, 0x0090, 0x008D, 0xFFD9, 0x0008, 0xFF1E, 0xFF5D, 0xFB48,
    0xFB51, 0x0052, 0xFF54, 0x01AA, 0xFCA9, 0x2898, 0x26F8, 0xFB8F, 0x00C2,
    0xFFF8, 0xFFFC, 0x007F, 0x004D, 0x000E, 0xFFFA, 0xFDF6, 0xFEC1, 0xFD11,
    0xFCFF, 0xFFE3, 0xFEC2, 0x02D0, 0x0108, 0x24B0, 0x2200, 0xFF0E, 0x0034,
    0x0008, 0xFFF2, 0x0156, 0x0161, 0xFFBB, 0x0010, 0xFFBC, 0x0021, 0xF895,
    0xF8E8, 0x0076, 0xFFD2, 0x01DF, 0xF894, 0x2C40, 0x2B58, 0xF84E, 0x0182,
    0xFFF5, 0x0048, 0x00DF, 0x00D9, 0xFFCE, 0xFFFF, 0xFF15, 0xFEF3, 0xFA1B,
    0xFA72, 0x0068, 0xFFC9, 0x0271, 0xFB6B, 0x2AD0, 0x28D8, 0xF973, 0x007E,
    0xFFE5, 0x003B, 0x008B, 0x0056, 0xFFF7, 0xFFF8, 0xFCA6, 0xFE05, 0xFCC4,
    0xFCFD, 0x00A0, 0xFFBC, 0x061F, 0x006E, 0x2688, 0x2390, 0xFBCE, 0xFDD5,
    0xFF72, 0x0038, 0x00EA, 0x00BD, 0xFFFF, 0xFF7A, 0x0068, 0x01D0, 0xF838,
    0xF8AE, 0x024F, 0x009C, 0x00F0, 0xF8F9, 0x2BF0, 0x2A78, 0xF8A8, 0x0035,
    0xFFE5, 0x0067, 0x0103, 0x00BA, 0xFFD0, 0xFFE1, 0xFEF0, 0xFF66, 0xF90E,
    0xFA1E, 0x0198, 0xFFF6, 0x02C2, 0xFB3D, 0x2C78, 0x28C8, 0xF7E2, 0x0019,
    0x0015, 0x0045, 0x0099, 0x0039, 0xFFDF, 0xFFFC, 0xFA0E, 0xFCE7, 0xFCD4,
    0xFD98, 0x025B, 0x00C7, 0x0BAA, 0x0209, 0x2838, 0x2368, 0xF752, 0xF9D7,
    0x0019, 0x0028, 0x01C3, 0x017A, 0xFFD4, 0xFFFF, 0xFF28, 0xFFF0, 0xF78C,
    0xF84D, 0x00E7, 0xFF85, 0x02B4, 0xF7AA, 0x2E68, 0x2BC8, 0xF6EC, 0x01D1,
    0x0045, 0x0063, 0x0148, 0x00AB, 0xFFC9, 0xFFEB, 0xFE4D, 0xFE49, 0xF8D8,
    0xFAF6, 0x0174, 0xFFBF, 0x038C, 0xFB94, 0x2E48, 0x2838, 0xF598, 0x00E3,
    0x0168, 0xFF91, 0x005A, 0xFFFD, 0xFFB1, 0x0013, 0xF5E0, 0xFC15, 0xFD1E,
    0xFF8E, 0x048A, 0x017C, 0x1178, 0x069E, 0x29E8, 0x2140, 0xF036, 0xF6D2,
    0x006D, 0x0060, 0x01B0, 0x015F, 0xFFE3, 0x0028, 0xFED1, 0xFED8, 0xF800,
    0xF955, 0x0021, 0xFF47, 0x02E3, 0xF856, 0x2EA0, 0x2A80, 0xF774, 0x01E7,
    0x012C, 0x007E, 0x0143, 0x0089, 0xFF8A, 0x003E, 0xFD4A, 0xFD3D, 0xF88C,
    0xFC59, 0x0169, 0xFF04, 0x038C, 0xFD0F, 0x2FB8, 0x2638, 0xF49C, 0x01C2,
    0x0399, 0xFEE6, 0x0003, 0xFFAD, 0xFF38, 0x0028, 0xF372, 0xFAAA, 0xFC5F,
    0x01CB, 0x05E2, 0x01B4, 0x1298, 0x0A8E, 0x2E50, 0x1DE0, 0xE998, 0xF7AA,
    0x005F, 0x005A, 0x036C, 0x02EE, 0xFEFA, 0x0117, 0xFEBE, 0x00DC, 0xF406,
    0xF59E, 0x029D, 0xFE05, 0x0387, 0xF658, 0x2FF0, 0x2C98, 0xF5BA, 0x02DA,
    0x01F0, 0x0164, 0x02B3, 0x01FD, 0x0003, 0x00F3, 0xFD5B, 0xFBED, 0xF70C,
    0xF9A1, 0xFFD3, 0xFE35, 0x00DA, 0x029B, 0x2F18, 0x22C0, 0xF724, 0x029D,
    0x04EC, 0x0108, 0x0095, 0xFEDF, 0xFF92, 0xFEF0, 0xF8BC, 0xF282, 0xF7EC,
    0x0751, 0x04CC, 0x01C2, 0x07D8, 0x1BA4, 0x36A8, 0x0F5E, 0xE5F4, 0xFB95,
};

static inline void
expand_line(uint8_t *line, unsigned const w)
{
    line[-2] = line[0];
    line[-1] = line[0];
    line[w + 0] = line[w - 1];
    line[w + 1] = line[w - 1];
    line[w + 2] = line[w - 1];
}

static inline void
expand_matrix(uint8_t *mtx,
              unsigned const w, unsigned const h,
              ptrdiff_t const stride)
{
    for (unsigned i = 0; i < h; ++i)
        expand_line(mtx + (i + 3) * stride + 2, w);
    memcpy(mtx + 0 * stride, mtx + 3 * stride, stride);
